const unsigned char model[] = {
  0x1c, 0x00, 0x00, 0x00, 0x54, 0x46, 0x4c, 0x33, 0x14, 0x00, 0x20, 0x00,
  0x1c, 0x00, 0x18, 0x00, 0x14, 0x00, 0x10, 0x00, 0x0c, 0x00, 0x00, 0x00,
  0x08, 0x00, 0x04, 0x00, 0x14, 0x00, 0x00, 0x00, 0x1c, 0x00, 0x00, 0x00,
  0x98, 0x00, 0x00, 0x00, 0xf0, 0x00, 0x00, 0x00, 0x4c, 0x20, 0x00, 0x00,
  0x5c, 0x20, 0x00, 0x00, 0x20, 0x26, 0x00, 0x00, 0x03, 0x00, 0x00, 0x00,
  0x01, 0x00, 0x00, 0x00, 0x10, 0x00, 0x00, 0x00, 0x00, 0x00, 0x0a, 0x00,
  0x10, 0x00, 0x0c, 0x00, 0x08, 0x00, 0x04, 0x00, 0x0a, 0x00, 0x00, 0x00,
  0x0c, 0x00, 0x00, 0x00, 0x1c, 0x00, 0x00, 0x00, 0x3c, 0x00, 0x00, 0x00,
  0x0f, 0x00, 0x00, 0x00, 0x73, 0x65, 0x72, 0x76, 0x69, 0x6e, 0x67, 0x5f,
  0x64, 0x65, 0x66, 0x61, 0x75, 0x6c, 0x74, 0x00, 0x01, 0x00, 0x00, 0x00,
  0x04, 0x00, 0x00, 0x00, 0x90, 0xff, 0xff, 0xff, 0x0a, 0x00, 0x00, 0x00,
  0x04, 0x00, 0x00, 0x00, 0x08, 0x00, 0x00, 0x00, 0x6f, 0x75, 0x74, 0x70,
  0x75, 0x74, 0x5f, 0x30, 0x00, 0x00, 0x00, 0x00, 0x01, 0x00, 0x00, 0x00,
  0x04, 0x00, 0x00, 0x00, 0x9a, 0xdf, 0xff, 0xff, 0x04, 0x00, 0x00, 0x00,
  0x0c, 0x00, 0x00, 0x00, 0x6b, 0x65, 0x72, 0x61, 0x73, 0x5f, 0x74, 0x65,
  0x6e, 0x73, 0x6f, 0x72, 0x00, 0x00, 0x00, 0x00, 0x02, 0x00, 0x00, 0x00,
  0x34, 0x00, 0x00, 0x00, 0x04, 0x00, 0x00, 0x00, 0xdc, 0xff, 0xff, 0xff,
  0x0d, 0x00, 0x00, 0x00, 0x04, 0x00, 0x00, 0x00, 0x13, 0x00, 0x00, 0x00,
  0x43, 0x4f, 0x4e, 0x56, 0x45, 0x52, 0x53, 0x49, 0x4f, 0x4e, 0x5f, 0x4d,
  0x45, 0x54, 0x41, 0x44, 0x41, 0x54, 0x41, 0x00, 0x08, 0x00, 0x0c, 0x00,
  0x08, 0x00, 0x04, 0x00, 0x08, 0x00, 0x00, 0x00, 0x0c, 0x00, 0x00, 0x00,
  0x04, 0x00, 0x00, 0x00, 0x13, 0x00, 0x00, 0x00, 0x6d, 0x69, 0x6e, 0x5f,
  0x72, 0x75, 0x6e, 0x74, 0x69, 0x6d, 0x65, 0x5f, 0x76, 0x65, 0x72, 0x73,
  0x69, 0x6f, 0x6e, 0x00, 0x0e, 0x00, 0x00, 0x00, 0x58, 0x1f, 0x00, 0x00,
  0x50, 0x1f, 0x00, 0x00, 0x50, 0x1e, 0x00, 0x00, 0xc0, 0x16, 0x00, 0x00,
  0xa0, 0x16, 0x00, 0x00, 0x54, 0x16, 0x00, 0x00, 0xc4, 0x15, 0x00, 0x00,
  0xb4, 0x00, 0x00, 0x00, 0xac, 0x00, 0x00, 0x00, 0xa4, 0x00, 0x00, 0x00,
  0x9c, 0x00, 0x00, 0x00, 0x94, 0x00, 0x00, 0x00, 0x74, 0x00, 0x00, 0x00,
  0x04, 0x00, 0x00, 0x00, 0x4e, 0xe0, 0xff, 0xff, 0x04, 0x00, 0x00, 0x00,
  0x60, 0x00, 0x00, 0x00, 0x10, 0x00, 0x00, 0x00, 0x00, 0x00, 0x00, 0x00,
  0x08, 0x00, 0x0e, 0x00, 0x08, 0x00, 0x04, 0x00, 0x08, 0x00, 0x00, 0x00,
  0x10, 0x00, 0x00, 0x00, 0x24, 0x00, 0x00, 0x00, 0x00, 0x00, 0x06, 0x00,
  0x08, 0x00, 0x04, 0x00, 0x06, 0x00, 0x00, 0x00, 0x04, 0x00, 0x00, 0x00,
  0x00, 0x00, 0x00, 0x00, 0x0c, 0x00, 0x18, 0x00, 0x14, 0x00, 0x10, 0x00,
  0x0c, 0x00, 0x04, 0x00, 0x0c, 0x00, 0x00, 0x00, 0x80, 0x3d, 0x92, 0xdd,
  0x74, 0x5a, 0x4f, 0x17, 0x02, 0x00, 0x00, 0x00, 0x02, 0x00, 0x00, 0x00,
  0x04, 0x00, 0x00, 0x00, 0x06, 0x00, 0x00, 0x00, 0x32, 0x2e, 0x31, 0x39,
  0x2e, 0x30, 0x00, 0x00, 0xba, 0xe0, 0xff, 0xff, 0x04, 0x00, 0x00, 0x00,
  0x10, 0x00, 0x00, 0x00, 0x31, 0x2e, 0x35, 0x2e, 0x30, 0x00, 0x00, 0x00,
  0x00, 0x00, 0x00, 0x00, 0x00, 0x00, 0x00, 0x00, 0xc0, 0xdb, 0xff, 0xff,
  0xc4, 0xdb, 0xff, 0xff, 0xc8, 0xdb, 0xff, 0xff, 0xcc, 0xdb, 0xff, 0xff,
  0xe6, 0xe0, 0xff, 0xff, 0x04, 0x00, 0x00, 0x00, 0x00, 0x15, 0x00, 0x00,
  0xca, 0x35, 0xd2, 0x3d, 0x7e, 0xad, 0x28, 0x3e, 0x50, 0xac, 0xbb, 0x3d,
  0xac, 0x6d, 0xc8, 0xbd, 0x49, 0xe7, 0x7c, 0x3d, 0xac, 0xd5, 0x34, 0xbe,
  0xc5, 0xb5, 0x00, 0x3e, 0x01, 0x1e, 0x8a, 0xbe, 0x43, 0x0b, 0x55, 0x3d,
  0x34, 0x1d, 0x22, 0xbd, 0x10, 0x9c, 0xc4, 0xbd, 0x14, 0xc0, 0xc7, 0xbd,
  0xcb, 0xb3, 0x80, 0xbc, 0x60, 0xb7, 0x81, 0x3e, 0x80, 0xf3, 0x89, 0x3e,
  0x13, 0x2a, 0x3c, 0x3e, 0xd4, 0x81, 0x1a, 0x3e, 0x0d, 0xcf, 0x67, 0x3e,
  0xb4, 0x3b, 0x35, 0x3e, 0x09, 0x9f, 0x3b, 0xbc, 0x4f, 0x27, 0x67, 0x3e,
  0x5f, 0x3e, 0x91, 0xbc, 0x39, 0x38, 0x43, 0xbe, 0xb3, 0xfd, 0x1a, 0x3e,
  0xd4, 0x6b, 0x6d, 0xbe, 0x2c, 0x4a, 0x96, 0xbe, 0xf2, 0x4c, 0x57, 0xbd,
  0x3c, 0x1b, 0x3c, 0xbe, 0xc0, 0xf7, 0x93, 0x3c, 0xf6, 0x29, 0x82, 0xbd,
  0x3a, 0x03, 0xce, 0xbd, 0xc0, 0x19, 0x53, 0xbd, 0xd7, 0x5f, 0x68, 0xbe,
  0x99, 0x26, 0x89, 0xbe, 0x34, 0xe4, 0xf8, 0xbd, 0xcd, 0x3f, 0x91, 0x3c,
  0x5e, 0x5a, 0x19, 0x3e, 0x31, 0xab, 0x14, 0xbe, 0x38, 0x18, 0x9a, 0x3c,
  0xd8, 0x01, 0x41, 0xbe, 0x6e, 0xa2, 0xec, 0xbc, 0xd0, 0xe6, 0x29, 0xbe,
  0xa3, 0xf5, 0x2f, 0xbe, 0x0c, 0x4c, 0x70, 0x3f, 0x81, 0x7c, 0x8b, 0xbd,
  0xd0, 0x6b, 0x39, 0xbf, 0x92, 0xd5, 0x28, 0xbd, 0x85, 0xf8, 0x21, 0xbf,
  0xd1, 0xc5, 0xe6, 0xbe, 0x9a, 0x0a, 0xb0, 0xbe, 0x97, 0xef, 0xf6, 0x3e,
  0x11, 0x19, 0x96, 0xbe, 0x61, 0x92, 0x07, 0xbf, 0x37, 0xf2, 0x57, 0x3e,
  0x2b, 0x10, 0xb2, 0xbd, 0x96, 0x12, 0xab, 0xbe, 0xf6, 0x3e, 0x94, 0xba,
  0x42, 0x1e, 0x08, 0xbf, 0xe5, 0xd5, 0xb7, 0xbd, 0x02, 0x93, 0xde, 0x3e,
  0xeb, 0x42, 0x9a, 0x3e, 0xd7, 0x2a, 0x3f, 0xbe, 0x83, 0x85, 0x1f, 0x3e,
  0xd6, 0x3c, 0xaa, 0x3d, 0xa1, 0x15, 0x7e, 0x3f, 0x29, 0xb0, 0x87, 0x3e,
  0x75, 0x70, 0x80, 0xbe, 0x66, 0x6f, 0x34, 0x3e, 0x7c, 0x36, 0x4c, 0x3e,
  0x54, 0x1d, 0x97, 0x3d, 0xd2, 0x19, 0x22, 0xbe, 0x05, 0xcc, 0xf5, 0xbe,
  0xeb, 0x81, 0xfa, 0x3c, 0xd6, 0xac, 0xd1, 0x3d, 0x5b, 0x58, 0x3c, 0x3e,
  0x65, 0xc3, 0x89, 0x3e, 0x0f, 0x5b, 0x13, 0x3e, 0x1c, 0xff, 0xb8, 0x3e,
  0x84, 0xfa, 0x6c, 0x3f, 0x41, 0x7e, 0x62, 0x3d, 0x25, 0x6c, 0xdb, 0xbd,
  0xac, 0xb3, 0xd6, 0x3e, 0x88, 0x0d, 0xf5, 0x3d, 0x92, 0x17, 0xb9, 0x3e,
  0xcf, 0x3e, 0x8a, 0xbe, 0x6e, 0x76, 0x2e, 0x3e, 0x06, 0x98, 0x6a, 0x3e,
  0xa9, 0x63, 0x06, 0xbe, 0xc2, 0xa6, 0x93, 0xbd, 0xec, 0xf5, 0x33, 0xbe,
  0x66, 0x4b, 0x31, 0x3e, 0x3b, 0x91, 0x40, 0xbe, 0xf8, 0x9a, 0x31, 0x3d,
  0xc4, 0xaf, 0x20, 0xbe, 0xcc, 0xcc, 0x5b, 0xbd, 0xc8, 0x88, 0x12, 0x3e,
  0xf7, 0xf9, 0x8b, 0x3e, 0x3c, 0x73, 0x86, 0x3d, 0xf2, 0x30, 0xb3, 0xbd,
  0x40, 0xf6, 0x98, 0xbd, 0x7a, 0x07, 0x07, 0x3e, 0x50, 0xd8, 0x8b, 0x3c,
  0xea, 0xe9, 0x6f, 0xbe, 0x94, 0x7d, 0x55, 0xbe, 0x68, 0x9f, 0x5d, 0x3d,
  0x68, 0x6a, 0x51, 0xbe, 0xec, 0xfb, 0x11, 0x3e, 0xc7, 0x18, 0x8b, 0x3e,
  0x3c, 0x10, 0x8a, 0xbe, 0x50, 0x0f, 0x85, 0x3c, 0xc2, 0xc9, 0x4d, 0xbe,
  0x38, 0x6a, 0x3c, 0x3e, 0x20, 0xdc, 0x2a, 0x3d, 0xcd, 0x90, 0x01, 0xbe,
  0x76, 0x3b, 0x67, 0xbe, 0xe2, 0xb4, 0x5d, 0x3e, 0x56, 0xf7, 0x4a, 0xbe,
  0xdf, 0x37, 0x81, 0xbe, 0xc0, 0xae, 0x2f, 0x3e, 0xda, 0x48, 0x75, 0x3e,
  0xee, 0x65, 0x05, 0x3e, 0x80, 0x48, 0x2d, 0x3c, 0x21, 0xdb, 0x0c, 0xbe,
  0x60, 0x8d, 0x44, 0xbc, 0x67, 0x4e, 0x81, 0x3e, 0x50, 0x01, 0x46, 0xbd,
  0xbf, 0x1a, 0xaf, 0x3e, 0xd9, 0xf9, 0x5a, 0xbe, 0xea, 0xfd, 0xed, 0x3e,
  0x4e, 0x55, 0x06, 0x3f, 0x85, 0x93, 0x9c, 0xbd, 0x92, 0x53, 0x79, 0x3e,
  0xc2, 0x20, 0x1d, 0x3f, 0x17, 0x56, 0xac, 0x3e, 0x78, 0x4c, 0x60, 0x3f,
  0x41, 0x14, 0x02, 0x3f, 0x5d, 0x02, 0xc3, 0x3e, 0x2d, 0x8b, 0x05, 0x3f,
  0xd5, 0xbf, 0x20, 0x3f, 0xa5, 0x61, 0x3d, 0x3f, 0xca, 0x25, 0x12, 0x3d,
  0x87, 0x94, 0xad, 0x3f, 0x5b, 0x58, 0xa1, 0xbd, 0xa7, 0xba, 0x38, 0xbf,
  0x40, 0xe0, 0x14, 0x3e, 0x5e, 0xbf, 0x1e, 0xbe, 0xe8, 0x80, 0xc7, 0xbe,
  0x41, 0xfc, 0xd3, 0x3d, 0x5c, 0x9e, 0xa7, 0xbf, 0xf3, 0xd1, 0x4a, 0xbd,
  0x0a, 0x73, 0xc0, 0x3e, 0xd5, 0x93, 0xa0, 0xbe, 0x96, 0xb1, 0xe8, 0xbd,
  0x46, 0x0a, 0x35, 0xbd, 0x6f, 0xe0, 0x5e, 0x3d, 0xdf, 0x0c, 0xd9, 0x3e,
  0x3d, 0x44, 0xc1, 0xbe, 0x32, 0x02, 0x99, 0xbd, 0x49, 0xb3, 0x59, 0xbe,
  0x5e, 0x4b, 0xff, 0x3c, 0xc1, 0x3c, 0xfd, 0x3d, 0xbe, 0x16, 0x5b, 0xbe,
  0x59, 0x66, 0x00, 0xbf, 0x5c, 0x57, 0xf6, 0xbe, 0x69, 0xc3, 0x43, 0x3e,
  0x83, 0x31, 0x98, 0xbe, 0x56, 0x0e, 0x1e, 0xbe, 0xb0, 0x22, 0xd8, 0xbc,
  0x82, 0x84, 0x83, 0x3e, 0xe2, 0x8c, 0x89, 0xbf, 0xfc, 0x8b, 0x9d, 0x3e,
  0x47, 0xd0, 0x1e, 0x3f, 0x34, 0xb5, 0x0f, 0xbd, 0xfa, 0x7d, 0x5b, 0x3e,
  0xba, 0xd4, 0x86, 0x3e, 0xc5, 0x19, 0x01, 0xbe, 0xaf, 0x22, 0x0b, 0xbf,
  0x00, 0xf0, 0x57, 0xbe, 0xc6, 0x6a, 0x0d, 0x3e, 0x41, 0x67, 0xdb, 0xbe,
  0x18, 0xbe, 0xa3, 0xbe, 0xd1, 0xb0, 0xc0, 0xbe, 0xbd, 0x2b, 0x51, 0x3e,
  0x55, 0x46, 0x48, 0xbf, 0x59, 0xd9, 0xe5, 0x3d, 0xc9, 0x3f, 0x43, 0x3f,
  0x88, 0xef, 0xc1, 0x3d, 0x6e, 0x7c, 0x88, 0x3e, 0x94, 0xaa, 0xa1, 0x3e,
  0x3c, 0x28, 0x35, 0x3e, 0x0d, 0xea, 0x28, 0xbf, 0x60, 0x17, 0x76, 0xbe,
  0x9f, 0xca, 0xda, 0x3e, 0x72, 0x28, 0x0e, 0xbe, 0x2e, 0xf7, 0x63, 0xbe,
  0xcf, 0x1f, 0xfa, 0x3d, 0xaf, 0xc8, 0x90, 0x3d, 0x80, 0xb7, 0xf7, 0xbe,
  0x06, 0x50, 0xcb, 0x3d, 0xf8, 0x1c, 0x18, 0x3e, 0xa2, 0xef, 0x77, 0xbc,
  0xa2, 0xb7, 0x34, 0x3e, 0x6c, 0x27, 0xa9, 0xbd, 0xd4, 0xd0, 0x53, 0xbe,
  0xfc, 0x3e, 0x57, 0xbf, 0x35, 0xcb, 0xcc, 0x3d, 0xf5, 0x7e, 0x9e, 0x3e,
  0x0d, 0x0f, 0x95, 0xbe, 0x12, 0x45, 0xe0, 0x3d, 0x0d, 0x46, 0x58, 0xbe,
  0x17, 0x8b, 0x29, 0xbe, 0xe1, 0xc9, 0xc2, 0x3e, 0x7c, 0x6e, 0x57, 0x3d,
  0x74, 0x31, 0xa5, 0xbe, 0xb1, 0x0a, 0xb3, 0x3e, 0xd1, 0xd4, 0xff, 0xbd,
  0x0d, 0x23, 0xa2, 0xbe, 0xea, 0x19, 0x48, 0x3e, 0x5d, 0x76, 0x64, 0x3e,
  0x04, 0xd7, 0x4f, 0xbd, 0x1f, 0x3f, 0x15, 0xbf, 0x70, 0xed, 0xbd, 0x3e,
  0x4c, 0x6f, 0x6c, 0xbc, 0x5b, 0x0e, 0x62, 0xbe, 0x65, 0xde, 0x27, 0x3e,
  0x68, 0xba, 0x8b, 0xbf, 0x91, 0xbe, 0x89, 0x3d, 0x6c, 0xd6, 0xf8, 0x3b,
  0x6e, 0xa5, 0x00, 0xbd, 0x8b, 0xe5, 0xbf, 0xbe, 0x8e, 0xe9, 0x05, 0xbe,
  0xb5, 0x75, 0x85, 0x3e, 0x03, 0xe6, 0x81, 0x3f, 0xd8, 0x3f, 0x8c, 0x3e,
  0x8a, 0x57, 0xdf, 0xbe, 0xbe, 0x11, 0x96, 0x3e, 0x02, 0x69, 0xc0, 0xbd,
  0x89, 0xe9, 0xe6, 0x3d, 0xc0, 0x80, 0xfe, 0x3d, 0x80, 0x27, 0x79, 0xbf,
  0x47, 0xb3, 0x12, 0x3e, 0xf4, 0x80, 0x0f, 0xbd, 0x80, 0xe5, 0xad, 0x3b,
  0x13, 0x80, 0x8e, 0x3e, 0x37, 0x82, 0x9b, 0x3c, 0xc2, 0x59, 0xfc, 0xbd,
  0x84, 0x9f, 0xa4, 0x3e, 0x9b, 0xaa, 0x8e, 0x3b, 0x6e, 0x2c, 0xac, 0x3c,
  0xf7, 0x24, 0x96, 0x3e, 0xf3, 0xe4, 0x5e, 0x3a, 0x2d, 0x49, 0x1c, 0xbd,
  0x70, 0xdd, 0x43, 0xbe, 0x20, 0xe0, 0x17, 0x3d, 0xe5, 0xe4, 0x34, 0xbe,
  0xf6, 0x7c, 0xe9, 0xbd, 0x40, 0xc7, 0x35, 0xbe, 0xcf, 0x7b, 0x41, 0xbe,
  0x60, 0x86, 0xa9, 0x3c, 0xf5, 0x81, 0x7e, 0xbe, 0x88, 0x92, 0x11, 0x3d,
  0x50, 0xb1, 0xa0, 0xbd, 0xea, 0xb9, 0x56, 0xbe, 0x76, 0xcd, 0xcd, 0xbd,
  0x58, 0x82, 0x10, 0xbe, 0x4a, 0xa4, 0x36, 0xbe, 0x30, 0x2e, 0x73, 0xbd,
  0xca, 0x07, 0x2a, 0x3e, 0xd6, 0x31, 0x65, 0x3e, 0x42, 0xc1, 0x74, 0xbe,
  0xe4, 0xa5, 0xe3, 0x3d, 0x00, 0xb9, 0x46, 0xbc, 0xf7, 0xd7, 0x85, 0xbe,
  0xc5, 0xd0, 0x8c, 0xbe, 0x30, 0xd2, 0xa1, 0x3d, 0x6a, 0x4e, 0x45, 0x3e,
  0xe8, 0x94, 0xf0, 0x3d, 0xd0, 0xad, 0x1e, 0xbe, 0x00, 0x46, 0x15, 0x3b,
  0x30, 0xa0, 0xc9, 0xbc, 0xec, 0x42, 0x6b, 0xbd, 0xd0, 0x31, 0x3e, 0xbd,
  0x01, 0x26, 0x1a, 0xbe, 0xcc, 0x3b, 0x4e, 0xbe, 0xda, 0xa3, 0x86, 0xbe,
  0x7e, 0xef, 0x32, 0xbe, 0xc0, 0x08, 0x42, 0x3c, 0x68, 0xc4, 0x87, 0x3d,
  0xb6, 0x45, 0x4b, 0x3e, 0xe4, 0x3d, 0xfe, 0x3d, 0x98, 0xc8, 0x49, 0xbe,
  0x40, 0x77, 0x29, 0xbc, 0x20, 0xff, 0x67, 0xbc, 0xae, 0x0e, 0x71, 0x3e,
  0x42, 0x35, 0x87, 0xbe, 0x1a, 0x8d, 0x02, 0x3f, 0x14, 0xc7, 0xa4, 0xbe,
  0xf2, 0xb9, 0x78, 0xbd, 0x8a, 0x5a, 0x39, 0x3e, 0x0e, 0x6a, 0xb4, 0xbc,
  0x78, 0x0f, 0x85, 0xbe, 0x70, 0x64, 0x87, 0xbc, 0x6c, 0x90, 0x81, 0x3f,
  0x4d, 0x01, 0x53, 0x3d, 0x7f, 0xe4, 0x5f, 0xbd, 0x8a, 0x4f, 0xb4, 0x3e,
  0x55, 0x7f, 0xf6, 0x3e, 0x9a, 0x10, 0x16, 0x3f, 0x7d, 0x0c, 0xd5, 0x3d,
  0x7d, 0xe8, 0xda, 0x3f, 0xac, 0xe5, 0xce, 0xbd, 0x23, 0xf6, 0x12, 0xbf,
  0x3f, 0x59, 0xad, 0x3e, 0x7d, 0x35, 0xbf, 0x3e, 0xfa, 0x60, 0xaa, 0x3d,
  0xff, 0x8a, 0x71, 0x3e, 0xc6, 0x37, 0x87, 0x3e, 0xbc, 0xed, 0x18, 0xbe,
  0x06, 0x07, 0x8c, 0x3e, 0xf3, 0x96, 0x12, 0xbe, 0x2c, 0xc9, 0x16, 0x3e,
  0x31, 0x7f, 0x27, 0x3e, 0xb0, 0xd5, 0x36, 0x3e, 0x89, 0x94, 0x79, 0x3f,
  0xc8, 0xd7, 0x3f, 0x3e, 0xe5, 0xf0, 0x85, 0xbe, 0xe5, 0x89, 0xce, 0xbd,
  0x1f, 0x3e, 0xbd, 0xbd, 0x40, 0xee, 0x46, 0xba, 0x91, 0x65, 0xb1, 0xbd,
  0x55, 0x80, 0xe2, 0x3e, 0x8d, 0xba, 0x29, 0x3e, 0x84, 0x32, 0x04, 0x3d,
  0x73, 0x51, 0xe4, 0xbd, 0x3f, 0x7f, 0xee, 0x3d, 0xc4, 0xe9, 0xd5, 0xba,
  0x0d, 0x12, 0x33, 0x3e, 0x5b, 0x3e, 0x7a, 0x3f, 0xea, 0xef, 0x2f, 0xbe,
  0x7d, 0xa0, 0xf1, 0xbe, 0xd4, 0x2a, 0xab, 0x3e, 0x92, 0x45, 0xb2, 0xba,
  0x95, 0x37, 0x22, 0x3e, 0x34, 0x4c, 0x7e, 0x3d, 0xda, 0x0d, 0x55, 0x3f,
  0xa7, 0x2e, 0x87, 0x3e, 0xe8, 0xbd, 0xc3, 0xbe, 0xac, 0x9e, 0xe4, 0x3e,
  0xb7, 0x9a, 0x78, 0x3e, 0xa2, 0x36, 0xf1, 0xbb, 0xc1, 0xf9, 0x2c, 0xbe,
  0xe7, 0xbc, 0x62, 0x3d, 0x54, 0x6a, 0x05, 0x3e, 0xb4, 0x9e, 0x30, 0xbf,
  0x06, 0xab, 0x0c, 0xbe, 0x5d, 0x38, 0x5e, 0xbe, 0x82, 0x92, 0xf9, 0xbd,
  0xd7, 0xda, 0xc6, 0xbd, 0xc0, 0xe2, 0x74, 0x3f, 0xb2, 0x53, 0x51, 0x3e,
  0x66, 0xc5, 0xcc, 0xbe, 0xc6, 0xdc, 0xe9, 0x3c, 0x76, 0x53, 0x01, 0x3e,
  0xe8, 0x19, 0x05, 0xbe, 0x20, 0x78, 0x4e, 0xbd, 0xa6, 0x50, 0x89, 0x3e,
  0xc0, 0x76, 0x1d, 0xbd, 0xaf, 0x12, 0xb9, 0x3d, 0x70, 0xe4, 0x9b, 0x3e,
  0xfd, 0xfc, 0x64, 0x3e, 0x6f, 0x6b, 0x3a, 0xbd, 0x87, 0x90, 0x0b, 0x3e,
  0x8d, 0x74, 0x0b, 0x3e, 0x4e, 0xda, 0x25, 0x3d, 0x9b, 0xa4, 0xf4, 0xbd,
  0xeb, 0xf4, 0x71, 0xbd, 0x62, 0x12, 0x3b, 0xbe, 0xe8, 0x19, 0x08, 0xbd,
  0x47, 0xfb, 0x7e, 0xbe, 0x1c, 0x46, 0x53, 0xbe, 0x4f, 0x8b, 0x63, 0xbe,
  0xfa, 0xf5, 0x78, 0x3e, 0xc8, 0xbc, 0x78, 0xbd, 0x91, 0x66, 0x58, 0xbe,
  0xc2, 0x33, 0x2f, 0x3e, 0x40, 0xb2, 0xbf, 0x3d, 0x08, 0xb5, 0x54, 0x3d,
  0x3e, 0x42, 0x39, 0xbe, 0x7f, 0xc3, 0x81, 0x3e, 0x52, 0x2c, 0x4f, 0x3e,
  0xec, 0xd1, 0x2a, 0xbe, 0xac, 0x6e, 0x2a, 0x3e, 0xb4, 0x7d, 0x58, 0xbe,
  0x70, 0xbb, 0x42, 0xbe, 0xbc, 0x26, 0x75, 0xbe, 0x56, 0x02, 0x9a, 0xbd,
  0x5e, 0xd3, 0x69, 0xbe, 0x29, 0x21, 0x88, 0x3e, 0x3c, 0xf3, 0x88, 0x3d,
  0xa0, 0xf9, 0x45, 0x3d, 0x60, 0x54, 0xef, 0xbc, 0x8c, 0x37, 0xcf, 0x3d,
  0xfe, 0xf5, 0x8a, 0xbd, 0x86, 0x8d, 0x52, 0x3e, 0x18, 0x93, 0x45, 0x3e,
  0x25, 0x63, 0x51, 0xbe, 0xfc, 0xe8, 0x4f, 0xbe, 0x58, 0x22, 0xdd, 0x3d,
  0xbc, 0xb7, 0x00, 0xbe, 0xde, 0xbf, 0x16, 0xbe, 0x5c, 0xf0, 0xec, 0xbd,
  0x6f, 0xcd, 0x81, 0xbe, 0x7c, 0xd5, 0x1b, 0xbe, 0x30, 0x7f, 0x82, 0xbe,
  0x48, 0x04, 0xb0, 0xbd, 0x17, 0x3d, 0x8d, 0xbe, 0x70, 0x1d, 0xe2, 0x3d,
  0x5e, 0xae, 0xb7, 0xbd, 0x1e, 0x65, 0xa2, 0xbd, 0x90, 0x1a, 0xf0, 0x3c,
  0x72, 0xbb, 0x92, 0xbd, 0x20, 0x64, 0xc7, 0xbc, 0x18, 0x02, 0xb4, 0xbd,
  0x72, 0x3d, 0x7c, 0xbe, 0xc1, 0x4c, 0x8a, 0xbe, 0xee, 0xf4, 0x5a, 0x3e,
  0xe8, 0x02, 0x19, 0x3d, 0x2c, 0x09, 0x30, 0xbe, 0x46, 0xed, 0x6b, 0x3e,
  0xe8, 0xd5, 0x14, 0x3d, 0x95, 0xba, 0x80, 0xbe, 0xa1, 0x15, 0x8c, 0x3e,
  0xdc, 0xc7, 0xda, 0x3d, 0x64, 0x81, 0x1e, 0x3e, 0x3c, 0x73, 0x09, 0x3e,
  0xd8, 0x0d, 0x0c, 0xbe, 0xef, 0x0f, 0x7e, 0xbe, 0x48, 0xf1, 0x57, 0xbd,
  0x20, 0x42, 0xb7, 0x3c, 0xbf, 0xa9, 0x8e, 0xbe, 0x0c, 0xf9, 0x6e, 0xbd,
  0x10, 0x71, 0xf8, 0x3c, 0xf2, 0xa4, 0x62, 0xbe, 0x90, 0xab, 0xc6, 0x3c,
  0x88, 0x6c, 0xa7, 0xbd, 0x41, 0xd8, 0x6b, 0xbe, 0xfe, 0x34, 0x63, 0xbe,
  0x00, 0x51, 0xd4, 0xba, 0x40, 0x7f, 0xb9, 0x3b, 0xb3, 0xf8, 0x89, 0x3e,
  0xb4, 0x85, 0x9b, 0x3d, 0xeb, 0x33, 0x88, 0x3e, 0xe2, 0xdb, 0x1a, 0xbe,
  0x10, 0x40, 0x48, 0xbd, 0x20, 0xf0, 0x02, 0xbe, 0xa8, 0xe0, 0x91, 0xbd,
  0x7e, 0xc5, 0x29, 0x3e, 0x59, 0x3b, 0x85, 0x3e, 0x88, 0xc3, 0x9e, 0x3d,
  0xc0, 0xa9, 0xab, 0x3c, 0xde, 0x07, 0x45, 0xbe, 0x50, 0xb7, 0xc2, 0x3c,
  0x00, 0xca, 0x08, 0x3a, 0xf8, 0x43, 0x0a, 0xbe, 0xd2, 0x5c, 0xfe, 0xbd,
  0xaa, 0x07, 0xc1, 0xbd, 0x60, 0xb3, 0x51, 0xbc, 0xd8, 0x1d, 0xa0, 0x3d,
  0x42, 0xd8, 0x78, 0xbe, 0x3c, 0xa8, 0x29, 0xbe, 0x98, 0xff, 0x6f, 0x3d,
  0xce, 0x7f, 0x65, 0xbe, 0x7a, 0x92, 0x81, 0xbd, 0xf2, 0xc9, 0x17, 0xbe,
  0xfa, 0xf1, 0x53, 0xbe, 0x18, 0x81, 0x06, 0x3d, 0xf9, 0xf4, 0x67, 0xbe,
  0x78, 0x8c, 0x41, 0xbe, 0xca, 0xf7, 0x29, 0xbe, 0x44, 0xd5, 0xb2, 0x3d,
  0x0c, 0x0c, 0xd5, 0x3d, 0x1d, 0x9c, 0x85, 0xbe, 0x54, 0x69, 0x55, 0xbe,
  0x42, 0x9a, 0x81, 0xbe, 0x54, 0xb7, 0xcc, 0x3d, 0xc0, 0x34, 0x49, 0x3d,
  0xd5, 0x54, 0x4a, 0xbe, 0x50, 0x1d, 0x67, 0xbe, 0x70, 0x7f, 0xf4, 0x3c,
  0x58, 0x82, 0x02, 0x3d, 0x5c, 0x2e, 0xa1, 0x3d, 0xc8, 0x19, 0x54, 0x3d,
  0x00, 0x8e, 0xa0, 0xbc, 0x98, 0x32, 0x6a, 0xbe, 0x40, 0xeb, 0x4a, 0x3d,
  0xfa, 0x91, 0xb9, 0xbd, 0x00, 0xea, 0xbe, 0x3d, 0xd2, 0xe2, 0xde, 0xbd,
  0x07, 0x51, 0x80, 0xbe, 0xf0, 0xc4, 0xdc, 0x3c, 0x80, 0xe1, 0x12, 0x3c,
  0x60, 0x10, 0x5d, 0xbc, 0xcc, 0x14, 0x5f, 0xbd, 0x1c, 0xdb, 0xf4, 0x3d,
  0x61, 0xb5, 0x38, 0xbe, 0xd9, 0x5c, 0x08, 0x3f, 0xc5, 0xbd, 0x9e, 0xbe,
  0x56, 0x3c, 0x11, 0xbe, 0xdf, 0x06, 0xb5, 0xb7, 0x94, 0xed, 0xb8, 0xbe,
  0xae, 0xbc, 0x42, 0xbe, 0xa0, 0x40, 0x2c, 0x3d, 0xf1, 0x11, 0xf9, 0x3e,
  0x22, 0x11, 0x5a, 0x3d, 0x63, 0x41, 0x3d, 0x3e, 0xcf, 0x8c, 0x94, 0xbc,
  0x9e, 0x5f, 0x07, 0x3e, 0x23, 0xc6, 0xd8, 0xbc, 0x81, 0xbf, 0xdd, 0x3e,
  0xf3, 0x90, 0x84, 0x3f, 0xa2, 0x47, 0xe1, 0x3e, 0x58, 0x23, 0x13, 0x3e,
  0x9a, 0x2a, 0xb9, 0x3e, 0xb6, 0x0a, 0x99, 0x3e, 0xf0, 0x70, 0x07, 0x3f,
  0x38, 0x7b, 0x84, 0xbd, 0x3d, 0x94, 0x7e, 0x3f, 0x2f, 0x69, 0xea, 0x3d,
  0x1d, 0x44, 0xc8, 0x3d, 0x80, 0x79, 0x97, 0xbe, 0x0b, 0x48, 0x67, 0xbe,
  0x5f, 0xaa, 0x7d, 0xbe, 0x25, 0xc7, 0x15, 0xbe, 0x9c, 0x4a, 0x98, 0x3f,
  0x86, 0x03, 0x93, 0x3e, 0xcd, 0xdc, 0x84, 0xbd, 0x64, 0x71, 0x54, 0xbe,
  0xda, 0x8b, 0xdf, 0xbd, 0x16, 0x37, 0x8b, 0xbe, 0xd8, 0x82, 0x78, 0x3e,
  0xe1, 0x33, 0x90, 0x3f, 0x53, 0x03, 0x39, 0xbd, 0xc8, 0xee, 0xab, 0x3d,
  0xc0, 0xb6, 0x24, 0x3e, 0x01, 0xb1, 0xec, 0xbd, 0x0c, 0x98, 0xab, 0x3e,
  0xe3, 0x89, 0x06, 0xbe, 0xb4, 0x72, 0xf5, 0x3c, 0xa9, 0x2a, 0x87, 0x3e,
  0xfc, 0x58, 0x49, 0xbd, 0xb8, 0xfc, 0xc0, 0x3e, 0x9e, 0x6e, 0x8b, 0x3d,
  0xee, 0x36, 0xd6, 0x3e, 0x91, 0x2a, 0xc2, 0x3d, 0xca, 0xf5, 0x03, 0x3f,
  0xe9, 0x4a, 0x8e, 0x3e, 0x86, 0xb3, 0xa7, 0xbd, 0xdc, 0xae, 0xc6, 0x3e,
  0xb5, 0xf9, 0xf0, 0x3d, 0x97, 0x69, 0x31, 0x3e, 0x0d, 0xc3, 0xf7, 0xbe,
  0xfc, 0xcd, 0xa7, 0xbf, 0x54, 0x1b, 0x9d, 0xbe, 0xe1, 0xb6, 0x95, 0x3e,
  0x10, 0xcf, 0xed, 0xbc, 0x13, 0xd8, 0xc8, 0xbe, 0xec, 0x6c, 0x27, 0xbe,
  0x7b, 0x50, 0x0f, 0xbd, 0xea, 0x12, 0x9d, 0x3e, 0x8d, 0xaa, 0x03, 0x3e,
  0x14, 0xff, 0x3c, 0x3e, 0x7c, 0x56, 0x31, 0x3e, 0xfd, 0x8b, 0xf0, 0x3d,
  0x91, 0x70, 0x6d, 0xbe, 0xd6, 0xee, 0x1d, 0x3d, 0xd6, 0x08, 0xd8, 0xbf,
  0x3b, 0x7e, 0x70, 0x3e, 0x78, 0x19, 0xa8, 0x3e, 0x01, 0x3f, 0xa9, 0xbd,
  0x37, 0x33, 0x40, 0x3e, 0x25, 0x08, 0x05, 0xbe, 0x52, 0xc8, 0x89, 0xbe,
  0x4e, 0x60, 0x9c, 0xbe, 0x1b, 0x92, 0x31, 0x3e, 0x12, 0x97, 0x6d, 0x3e,
  0x4a, 0xe2, 0xc8, 0x3d, 0xe8, 0xac, 0x1f, 0x3e, 0x2f, 0x0d, 0x56, 0x3e,
  0x18, 0x2e, 0x26, 0x3e, 0x2c, 0xd5, 0x1f, 0xbf, 0x65, 0x4c, 0x96, 0xbd,
  0xfb, 0x92, 0xc2, 0x3d, 0xd9, 0x78, 0xcc, 0x3d, 0xd6, 0xd2, 0x9d, 0x3e,
  0xed, 0x41, 0xd6, 0xbc, 0x8b, 0xee, 0x47, 0xbe, 0x11, 0x0c, 0x1a, 0xbf,
  0x4c, 0x49, 0xef, 0x3d, 0x3d, 0x44, 0xfe, 0x3e, 0xfe, 0x2c, 0x92, 0xbd,
  0x8f, 0x0b, 0xa8, 0xbe, 0x91, 0x96, 0x2a, 0xbe, 0x8b, 0x6c, 0x3d, 0x3e,
  0x8d, 0xcd, 0x86, 0x3d, 0xbe, 0x08, 0xd9, 0x3e, 0xed, 0x7f, 0x04, 0x3f,
  0xce, 0xa4, 0x04, 0x3e, 0x20, 0xa6, 0x46, 0x3e, 0x70, 0x8e, 0xfa, 0x3e,
  0x19, 0x58, 0x71, 0x3e, 0x63, 0x1c, 0x05, 0x3f, 0xb0, 0x69, 0x37, 0xbd,
  0xf0, 0x3f, 0xc8, 0x3e, 0x71, 0xa0, 0x93, 0x3e, 0x79, 0x33, 0x24, 0x3e,
  0x36, 0xaa, 0xb2, 0xbd, 0x6b, 0x94, 0xca, 0x3e, 0x72, 0x6b, 0x1f, 0x3f,
  0xc3, 0xf2, 0x99, 0x3e, 0x6e, 0xb9, 0xc1, 0x3d, 0x9a, 0xe8, 0xe7, 0x3e,
  0xe7, 0x16, 0xce, 0xbc, 0xc4, 0xa4, 0x14, 0xbe, 0x99, 0xb9, 0x90, 0x3e,
  0x35, 0x0d, 0xcc, 0x3e, 0x64, 0xef, 0x41, 0xbd, 0xa9, 0x82, 0xbd, 0x3e,
  0x35, 0x36, 0xcc, 0x3e, 0x3f, 0xa3, 0xb4, 0x3e, 0x59, 0xbc, 0x5a, 0x3e,
  0xd9, 0xe2, 0x79, 0x3e, 0x01, 0x41, 0x9e, 0xbe, 0xc3, 0x3c, 0x93, 0x3e,
  0xe3, 0xaf, 0xa3, 0x3e, 0xa3, 0x3b, 0xeb, 0x3d, 0xd1, 0xdf, 0x49, 0x3f,
  0x96, 0x59, 0xb6, 0x3e, 0x00, 0xde, 0xbd, 0x3e, 0xc1, 0x2e, 0xa4, 0xbe,
  0xbc, 0x05, 0x9f, 0x3e, 0x7e, 0xaa, 0x3f, 0x3e, 0x1a, 0x7d, 0xcd, 0x3e,
  0x14, 0xf0, 0xe2, 0x3e, 0x82, 0x8a, 0x5f, 0x3e, 0xb0, 0x8f, 0x14, 0xbe,
  0xef, 0x69, 0xa0, 0xbf, 0xba, 0xf9, 0x02, 0xbe, 0x0c, 0x52, 0x34, 0x3c,
  0x0b, 0xcd, 0xc3, 0xbe, 0xba, 0xbe, 0xba, 0xbe, 0x86, 0xb7, 0x2c, 0xbd,
  0x90, 0x22, 0x9b, 0x3e, 0x91, 0xb4, 0x24, 0xbf, 0x3a, 0xee, 0xb1, 0xbd,
  0x25, 0x57, 0x8b, 0xbd, 0x3b, 0xe2, 0x77, 0x3e, 0xc1, 0x56, 0x8c, 0xbc,
  0xbe, 0xe0, 0xd7, 0xbd, 0x03, 0x31, 0x95, 0x3e, 0xe2, 0xfb, 0xa4, 0xbf,
  0x3a, 0xc0, 0xb0, 0xbd, 0x69, 0x56, 0xe3, 0x3e, 0x09, 0x34, 0x00, 0x3e,
  0x08, 0x71, 0xce, 0x3e, 0x91, 0xda, 0xad, 0x3d, 0x16, 0x85, 0xb0, 0xbd,
  0x2a, 0x16, 0x9b, 0xbf, 0xd3, 0x9d, 0x38, 0xbe, 0xc9, 0xc8, 0xb8, 0x3d,
  0xec, 0xd2, 0x10, 0x3e, 0x75, 0x9d, 0x84, 0x3d, 0xae, 0x82, 0xae, 0xbd,
  0x34, 0x2a, 0x83, 0xbe, 0x82, 0x2d, 0xde, 0xbd, 0x52, 0xf6, 0x81, 0xbe,
  0x39, 0xf6, 0x88, 0x3e, 0xc2, 0x5e, 0x74, 0x3e, 0x9c, 0xbb, 0x16, 0xbd,
  0x9d, 0xea, 0x8b, 0x3e, 0xde, 0x28, 0x23, 0xbe, 0x68, 0x31, 0x41, 0x3d,
  0x70, 0xf3, 0x26, 0xbd, 0xb1, 0xa0, 0x8c, 0xbe, 0x44, 0x66, 0xeb, 0x3d,
  0x94, 0x2b, 0xea, 0x3d, 0xfc, 0x27, 0x2e, 0xbe, 0x73, 0xc3, 0x0a, 0xbe,
  0xd0, 0x81, 0x4b, 0xbd, 0x06, 0x14, 0x0a, 0xbe, 0xd2, 0x6a, 0x49, 0xbe,
  0xb8, 0x1b, 0x2d, 0xbe, 0xc6, 0x9e, 0x8b, 0xbd, 0x46, 0xfb, 0x74, 0xbe,
  0x24, 0xba, 0x97, 0x3d, 0xe0, 0xb0, 0x32, 0xbd, 0x35, 0x02, 0x4b, 0xbe,
  0x89, 0xf0, 0x85, 0xbe, 0xb0, 0x8d, 0x0a, 0xbd, 0x03, 0x9f, 0x83, 0x3e,
  0xa4, 0x6a, 0x30, 0xbd, 0xc4, 0xe8, 0x32, 0xbd, 0xeb, 0x0f, 0x8a, 0x3e,
  0xca, 0x32, 0x18, 0x3e, 0x8c, 0xae, 0x1f, 0xbd, 0x26, 0x24, 0x4b, 0x3e,
  0x96, 0x82, 0x4a, 0xbe, 0xa7, 0x74, 0x90, 0x3e, 0x0e, 0xcd, 0x13, 0x3e,
  0x52, 0x9c, 0x40, 0xbe, 0xc0, 0xd4, 0x5c, 0xbd, 0x92, 0x4a, 0x9c, 0xbd,
  0xc0, 0xd9, 0xa9, 0x3c, 0xe8, 0x64, 0x9f, 0xbd, 0x48, 0x7b, 0x09, 0x3d,
  0x80, 0x04, 0x0d, 0x3e, 0x21, 0xaf, 0x70, 0x3f, 0xbd, 0xab, 0x91, 0x3e,
  0x7f, 0xef, 0x2e, 0xbe, 0x6c, 0x0a, 0xde, 0x3e, 0xb6, 0xee, 0xaa, 0x3e,
  0xc3, 0x93, 0xe8, 0x3e, 0x76, 0xe0, 0x07, 0x3d, 0x13, 0x25, 0x5d, 0x3f,
  0xd4, 0xa6, 0xb9, 0x3e, 0x7c, 0x80, 0x1c, 0xbf, 0x91, 0x36, 0x03, 0x3f,
  0x88, 0xd7, 0xcd, 0x3e, 0x7b, 0xa9, 0x1e, 0x3e, 0xe1, 0xc7, 0x08, 0xbf,
  0x5c, 0x59, 0x8b, 0xbe, 0x46, 0xe0, 0x3e, 0xbc, 0x38, 0x96, 0x3e, 0xbf,
  0x43, 0x78, 0x96, 0xbe, 0x90, 0x15, 0x2d, 0xbf, 0xb4, 0x45, 0x35, 0xbf,
  0x8a, 0xf7, 0x7d, 0x3d, 0x4e, 0xb5, 0xaa, 0x3e, 0x84, 0x5b, 0x04, 0x3d,
  0xa1, 0x45, 0x00, 0xbe, 0xd2, 0xa3, 0x60, 0x3e, 0x7f, 0xaa, 0xc3, 0xbd,
  0x10, 0x68, 0x31, 0x3d, 0x41, 0x25, 0x3e, 0x3e, 0x03, 0xf6, 0x29, 0xbf,
  0xdf, 0x38, 0x4c, 0x3d, 0x81, 0xcd, 0x85, 0xbd, 0x38, 0xb9, 0x3a, 0x3e,
  0x4e, 0xe1, 0xde, 0xbd, 0xd3, 0x55, 0x34, 0xbd, 0x12, 0xed, 0xb4, 0x3d,
  0x36, 0xde, 0x1d, 0xbf, 0xdc, 0x16, 0x0e, 0xbe, 0xdb, 0xc6, 0x3d, 0x3e,
  0x50, 0x1b, 0x81, 0xbe, 0xb3, 0xad, 0x86, 0xbe, 0x4f, 0xee, 0xab, 0xbd,
  0xa1, 0xfc, 0xa7, 0x3d, 0xcb, 0x09, 0xc4, 0x3e, 0x77, 0x78, 0x00, 0xbe,
  0x01, 0xa8, 0x1f, 0x3e, 0x95, 0x79, 0xac, 0x3d, 0x64, 0x6d, 0x8e, 0xbe,
  0xb4, 0x5b, 0xcd, 0xbd, 0x80, 0x49, 0xc0, 0xbd, 0xbc, 0x2b, 0xcd, 0x3e,
  0xc9, 0xea, 0xc8, 0xbd, 0xfc, 0x42, 0x0b, 0x3e, 0xee, 0x7c, 0x9c, 0x3e,
  0x58, 0xd2, 0x68, 0xbd, 0xac, 0x5e, 0xe5, 0x3d, 0x5b, 0x13, 0x85, 0x3e,
  0xd3, 0x57, 0xce, 0x3f, 0xdc, 0x15, 0xb7, 0x3d, 0x92, 0x9b, 0x05, 0xbf,
  0x52, 0x1b, 0xe9, 0x3e, 0x67, 0x1e, 0xd9, 0x3e, 0xf2, 0xad, 0x83, 0x3e,
  0x92, 0xfb, 0xa0, 0xbe, 0x61, 0x5b, 0xd1, 0xbc, 0xa9, 0xed, 0xbd, 0x3b,
  0xa3, 0x79, 0xc2, 0xbd, 0x60, 0x37, 0xca, 0x3d, 0x5b, 0xb3, 0xea, 0xbc,
  0x80, 0x1d, 0x2e, 0x3d, 0x89, 0xaf, 0xed, 0xbd, 0xf1, 0x5a, 0xcb, 0x3f,
  0x9f, 0x59, 0x83, 0xbe, 0x3d, 0xd2, 0xb5, 0xbe, 0xb1, 0xf4, 0x41, 0xbe,
  0x69, 0x41, 0xea, 0xbd, 0xae, 0xd6, 0x93, 0xbd, 0x30, 0xd2, 0x37, 0x3e,
  0x17, 0x56, 0x22, 0x3f, 0x9a, 0x7c, 0xd6, 0xbc, 0x56, 0x88, 0x11, 0x3e,
  0x95, 0x1c, 0xa9, 0x3d, 0xc5, 0x6e, 0x1e, 0xbe, 0x40, 0xf2, 0x6b, 0xbe,
  0x40, 0x13, 0x16, 0xbc, 0xea, 0xd2, 0x13, 0x3e, 0x88, 0xe2, 0x41, 0x3d,
  0x38, 0xe3, 0xfb, 0xbd, 0x9e, 0x2b, 0xbb, 0xbd, 0xb6, 0xf8, 0x61, 0xbe,
  0x50, 0xbb, 0x58, 0xbd, 0xfe, 0x17, 0x58, 0x3e, 0x30, 0xd3, 0x78, 0x3d,
  0x18, 0x2b, 0x57, 0x3d, 0x56, 0x2f, 0x0f, 0xbe, 0x4e, 0xcf, 0xdf, 0xbd,
  0x34, 0x75, 0x52, 0xbd, 0xfc, 0xcd, 0xa1, 0x3d, 0x38, 0x0e, 0x35, 0xbe,
  0xce, 0x2b, 0x5c, 0xbe, 0xdc, 0xe5, 0xdd, 0x3d, 0x10, 0xea, 0x90, 0x3d,
  0xa0, 0x40, 0xf5, 0xbd, 0x20, 0x55, 0x42, 0x3e, 0x50, 0x2f, 0x56, 0x3d,
  0xea, 0x67, 0x95, 0xbd, 0x4e, 0xc2, 0x25, 0x3e, 0xff, 0xfd, 0x8d, 0x3e,
  0xc6, 0xad, 0x43, 0xbe, 0x70, 0xb7, 0xf2, 0xbd, 0xec, 0x69, 0x9c, 0xbd,
  0x1c, 0xd8, 0x82, 0xbe, 0xf0, 0x35, 0x15, 0x3d, 0x60, 0x66, 0xc9, 0x3c,
  0xb4, 0xe0, 0xa8, 0x3d, 0x48, 0xed, 0x07, 0xbd, 0x54, 0xcc, 0x7b, 0xbd,
  0xe2, 0x03, 0xd1, 0xbd, 0xa6, 0xf3, 0xca, 0xbd, 0xe0, 0xda, 0x74, 0x3d,
  0xf4, 0x19, 0xc8, 0x3d, 0x06, 0x74, 0x9a, 0xbd, 0x10, 0xa9, 0xac, 0xbc,
  0xe0, 0xc0, 0x1b, 0x3e, 0xd0, 0x5b, 0x35, 0x3e, 0xac, 0xfc, 0x1e, 0xbe,
  0xee, 0xc8, 0x65, 0xbe, 0xa3, 0x58, 0x84, 0x3f, 0x56, 0xe4, 0x0d, 0xbe,
  0xd4, 0xbb, 0x1f, 0xbf, 0x3c, 0xea, 0xe1, 0x3e, 0xe4, 0x8e, 0x55, 0xbe,
  0xae, 0x45, 0xb8, 0xbe, 0xe2, 0xba, 0xa0, 0x3e, 0xd8, 0x26, 0x21, 0x3f,
  0xfd, 0xe2, 0x4a, 0xbd, 0x71, 0x62, 0x9c, 0xbe, 0x81, 0x30, 0xe4, 0x3e,
  0x5d, 0x98, 0xed, 0x3b, 0x57, 0xf8, 0x6f, 0x3e, 0x53, 0x88, 0x41, 0x3e,
  0xa5, 0xe0, 0x02, 0x3f, 0x72, 0x7d, 0x4d, 0x3e, 0x82, 0xfc, 0xcd, 0xbe,
  0x59, 0xfd, 0x84, 0x3e, 0x68, 0x58, 0x2c, 0xbe, 0x28, 0x31, 0xba, 0xbe,
  0xa6, 0x3f, 0x87, 0x3e, 0x18, 0x58, 0x7c, 0x3f, 0xe6, 0x0c, 0x58, 0xbe,
  0x13, 0xa9, 0xbd, 0xbe, 0x71, 0x34, 0x84, 0x3c, 0xcb, 0xa3, 0x16, 0xbe,
  0xd5, 0x2f, 0x7b, 0xbe, 0xbd, 0x3c, 0x8f, 0xbd, 0xe9, 0x67, 0xa5, 0xbe,
  0xb6, 0xab, 0x14, 0xbe, 0xd9, 0x23, 0xe5, 0xbd, 0x60, 0xf8, 0x10, 0xbd,
  0x73, 0x7c, 0x71, 0x3e, 0x77, 0xc1, 0x05, 0xbd, 0x6c, 0xe1, 0x0e, 0xbe,
  0x64, 0x79, 0xbc, 0x3e, 0x7f, 0xfd, 0xaa, 0xbd, 0xe9, 0x5e, 0x5e, 0xbd,
  0x4d, 0x69, 0x83, 0x3d, 0x52, 0x88, 0xa3, 0x3e, 0x7f, 0xa4, 0x22, 0x3e,
  0x26, 0xb8, 0x3b, 0x3d, 0x54, 0x33, 0xb3, 0xbe, 0x0a, 0x4d, 0x9c, 0x3d,
  0x3a, 0xb5, 0x7c, 0x3e, 0xd6, 0x84, 0xc5, 0x3d, 0xfe, 0x93, 0xb8, 0x3e,
  0x16, 0x79, 0x31, 0x3f, 0x85, 0x8e, 0x84, 0x3c, 0x15, 0xaf, 0x9e, 0xbe,
  0xf7, 0x02, 0x93, 0x3e, 0x10, 0x11, 0x0b, 0x3f, 0xa1, 0x22, 0x93, 0x3e,
  0x5c, 0x9b, 0x4e, 0xbd, 0xbc, 0x22, 0x3e, 0xbd, 0xad, 0xbe, 0x04, 0x3e,
  0xef, 0xf9, 0xe1, 0x3e, 0x96, 0x9f, 0x03, 0xbd, 0x6d, 0xae, 0xae, 0xbe,
  0x29, 0x43, 0x89, 0x3e, 0xe6, 0x4c, 0x97, 0xbe, 0x4e, 0xd0, 0x9a, 0xbe,
  0x1e, 0x40, 0x2d, 0x3d, 0x89, 0xd3, 0x56, 0xbf, 0x34, 0x81, 0xa2, 0x3e,
  0x17, 0xb6, 0x63, 0x3d, 0xc8, 0x37, 0x99, 0x3d, 0x67, 0x2a, 0xa1, 0x3e,
  0x89, 0xeb, 0x06, 0xbd, 0xbe, 0xdd, 0x95, 0x3e, 0xbe, 0xd0, 0xf3, 0x3d,
  0x7b, 0x11, 0xbd, 0x3d, 0xa2, 0xd6, 0xa2, 0xbd, 0x1f, 0xf9, 0x97, 0x3e,
  0x59, 0x60, 0x17, 0xbe, 0xa8, 0xfb, 0xe4, 0xbd, 0x8a, 0x92, 0x28, 0xbe,
  0xd9, 0x3b, 0x0e, 0xbf, 0x2b, 0xf1, 0x88, 0x3e, 0x13, 0x36, 0x46, 0x3e,
  0x39, 0x24, 0x08, 0xbe, 0x5b, 0x4a, 0x9a, 0xbe, 0xae, 0x60, 0x55, 0xbe,
  0xf0, 0xc2, 0xdb, 0x3c, 0x49, 0xfa, 0x85, 0x3e, 0x82, 0xe1, 0x72, 0x3e,
  0xe0, 0x07, 0xd3, 0x3d, 0x08, 0xf5, 0x1a, 0xbe, 0x12, 0x7e, 0x32, 0x3e,
  0x40, 0xed, 0x22, 0x3e, 0x38, 0x19, 0x0d, 0x3d, 0xe4, 0xb6, 0x2a, 0xbd,
  0x4f, 0xcc, 0x13, 0xbe, 0xba, 0xa8, 0x47, 0xbe, 0x50, 0xa1, 0x8b, 0x3c,
  0x6c, 0xd7, 0xd9, 0xbd, 0x09, 0x12, 0x14, 0xbe, 0xd0, 0x23, 0xe4, 0xbc,
  0xe0, 0x8e, 0x13, 0xbe, 0xe4, 0x67, 0x15, 0xbe, 0x00, 0x07, 0x58, 0xbd,
  0x64, 0x51, 0x62, 0xbe, 0x50, 0xc9, 0x18, 0xbe, 0x14, 0xf9, 0xe6, 0x3d,
  0x9c, 0x46, 0xfb, 0xbd, 0x50, 0x17, 0x9f, 0x3d, 0xca, 0x7a, 0x30, 0xbe,
  0x88, 0xaa, 0x68, 0x3d, 0x65, 0x57, 0x84, 0xbe, 0x78, 0xd5, 0x00, 0x3e,
  0x58, 0xe7, 0x8a, 0xbe, 0x58, 0xae, 0x89, 0xbe, 0x76, 0x95, 0x13, 0x3e,
  0xad, 0x90, 0x1a, 0xbe, 0x8e, 0x27, 0x17, 0x3e, 0x78, 0x1d, 0x38, 0x3e,
  0x18, 0xca, 0x48, 0x3d, 0x0a, 0x3b, 0x2a, 0xbe, 0x20, 0x29, 0x60, 0xbe,
  0x04, 0x1b, 0xd1, 0xbd, 0x3d, 0xc2, 0x83, 0x3e, 0xf8, 0x37, 0xe1, 0x3d,
  0x68, 0x2d, 0x4e, 0x3d, 0x36, 0x3e, 0x5a, 0x3e, 0x62, 0x7b, 0x67, 0x3e,
  0x5a, 0xee, 0xe9, 0xbe, 0xae, 0x7e, 0x33, 0x3f, 0x46, 0x2e, 0xc8, 0xbe,
  0x33, 0xc8, 0x61, 0xbd, 0x9f, 0x8c, 0xb7, 0xbd, 0x31, 0xcb, 0x0b, 0xbf,
  0x7f, 0x8b, 0x2e, 0xbf, 0x03, 0xe4, 0x58, 0xbe, 0x95, 0xc1, 0x39, 0x3e,
  0xd1, 0xaa, 0x8b, 0xbe, 0x86, 0x5b, 0x87, 0xbe, 0xdc, 0x2e, 0x08, 0x3e,
  0xe5, 0x9c, 0x65, 0xbe, 0x85, 0xea, 0x82, 0xbe, 0xeb, 0x3f, 0x09, 0x3e,
  0xd0, 0x69, 0xe2, 0x3e, 0x46, 0x5b, 0xa3, 0x3e, 0xc9, 0x77, 0xa1, 0x3d,
  0x22, 0x2a, 0xa0, 0x3e, 0x26, 0x5e, 0xf1, 0x3d, 0xef, 0xf1, 0xb9, 0x3e,
  0xe1, 0x03, 0x59, 0x3c, 0x1c, 0xd5, 0x3e, 0x3f, 0x3c, 0x0a, 0x67, 0x3d,
  0xf8, 0xe6, 0xcf, 0x3d, 0xd7, 0x80, 0x58, 0xbe, 0x31, 0xe7, 0x35, 0xbe,
  0x4c, 0xa9, 0x86, 0xbe, 0x65, 0x52, 0x2b, 0x3e, 0x3b, 0x0a, 0x82, 0x3f,
  0x1d, 0x24, 0x78, 0x3d, 0x3c, 0x2a, 0x49, 0x3e, 0xf3, 0x1a, 0x34, 0x3e,
  0x15, 0xee, 0x83, 0x3d, 0x80, 0xcb, 0x57, 0xbe, 0x7a, 0xf9, 0x22, 0xbe,
  0x23, 0x0e, 0x51, 0x3f, 0x27, 0x8d, 0x93, 0x3e, 0x36, 0xf6, 0x9b, 0xbe,
  0x3f, 0x6d, 0x7f, 0x3e, 0xbb, 0x2f, 0x83, 0x3e, 0xa7, 0xa2, 0xc6, 0x3d,
  0x52, 0x92, 0x5d, 0x3e, 0x20, 0xf5, 0xe0, 0xbd, 0x05, 0x7b, 0x8f, 0x3e,
  0x88, 0x25, 0xc1, 0xbd, 0x88, 0x74, 0x0d, 0x3d, 0x56, 0xd9, 0x52, 0x3e,
  0x7a, 0xdc, 0x4a, 0xbe, 0x44, 0x5c, 0x18, 0xbd, 0xc2, 0xe7, 0x4d, 0x3e,
  0xb4, 0x88, 0x35, 0xbd, 0x78, 0xe8, 0x3e, 0xbd, 0x08, 0x49, 0xc0, 0xbd,
  0xd0, 0xd4, 0xcd, 0x3c, 0x9d, 0x87, 0x7d, 0xbe, 0x6f, 0xe0, 0x1c, 0xbe,
  0x6e, 0xc5, 0x50, 0x3e, 0x95, 0x78, 0x14, 0xbe, 0x8a, 0xe5, 0x4e, 0x3e,
  0x95, 0x95, 0x85, 0x3e, 0xb0, 0x22, 0x07, 0xbd, 0xfe, 0xd5, 0x7b, 0x3e,
  0x80, 0xf7, 0x0d, 0xbc, 0x30, 0x03, 0x61, 0xbe, 0x78, 0x77, 0x6a, 0xbd,
  0x64, 0xf3, 0x1c, 0x3e, 0x20, 0x5c, 0x05, 0xbe, 0x90, 0xea, 0x94, 0x3c,
  0x48, 0xd8, 0xb5, 0x3d, 0x78, 0x71, 0xe3, 0xbd, 0x08, 0x60, 0x7a, 0xbe,
  0x7c, 0xcf, 0xbe, 0x3d, 0xa2, 0x0d, 0x54, 0xbe, 0x61, 0x57, 0x87, 0xbe,
  0x88, 0x2f, 0x98, 0xbd, 0x76, 0x9a, 0x6e, 0xbe, 0x1a, 0xfc, 0x6e, 0x3e,
  0x66, 0x12, 0xdd, 0xbd, 0x5f, 0x68, 0x37, 0xbe, 0xe3, 0xfa, 0x89, 0xbe,
  0x47, 0x4d, 0x8f, 0xbe, 0x00, 0x80, 0xf8, 0x3b, 0xca, 0xfd, 0x20, 0x3e,
  0x79, 0x11, 0x70, 0xbe, 0x80, 0xbc, 0xf4, 0xbe, 0x90, 0x9c, 0x62, 0x3d,
  0x2c, 0xcc, 0xe6, 0x3e, 0x71, 0x1d, 0x1f, 0xbe, 0x95, 0x0f, 0xc6, 0xbd,
  0xcf, 0x40, 0x76, 0xbd, 0xe0, 0xb0, 0x87, 0xbe, 0x8e, 0x9c, 0x8e, 0xbf,
  0xe0, 0xe2, 0x04, 0xbf, 0x1a, 0xee, 0x15, 0x3d, 0x39, 0xcd, 0xe9, 0xbe,
  0xb5, 0x03, 0x4e, 0xbf, 0xdd, 0x20, 0x6f, 0xbe, 0xd2, 0xb9, 0x45, 0x3e,
  0x68, 0x33, 0xc9, 0xbc, 0x75, 0x13, 0x9c, 0x3d, 0xc7, 0x6a, 0x4e, 0x3f,
  0x0a, 0xc6, 0x5b, 0x3e, 0xf9, 0xa7, 0xa3, 0x3e, 0xbf, 0x3e, 0x36, 0x3f,
  0x2f, 0x01, 0xeb, 0x3d, 0x84, 0xc3, 0x2e, 0x3f, 0x2b, 0x7a, 0xa2, 0x3e,
  0xed, 0xc6, 0x47, 0x3e, 0x68, 0xfd, 0x43, 0x3e, 0x23, 0x50, 0x8c, 0x3e,
  0x89, 0x58, 0x36, 0xbd, 0x19, 0xb2, 0x60, 0xbe, 0x3f, 0x9b, 0x32, 0x3f,
  0xcc, 0xf8, 0x1e, 0xbe, 0x9a, 0xe7, 0x45, 0xbd, 0x00, 0x42, 0xae, 0x3e,
  0x1e, 0xff, 0x94, 0x3e, 0xc3, 0x53, 0x10, 0x3d, 0x17, 0xff, 0xca, 0x3e,
  0x30, 0xfa, 0x5f, 0x3f, 0xb1, 0x3a, 0x7c, 0x3e, 0xc3, 0xc4, 0x3e, 0x3e,
  0x15, 0x6a, 0x61, 0x3d, 0xca, 0x1e, 0x96, 0x3e, 0xf5, 0x86, 0xcc, 0x3e,
  0xc2, 0x56, 0x72, 0x3e, 0x00, 0xd3, 0x7a, 0xbe, 0x7b, 0x11, 0x89, 0x3e,
  0xc2, 0x4d, 0x6f, 0x3e, 0x67, 0x94, 0x8b, 0x3e, 0x94, 0x3d, 0x25, 0xbd,
  0xfe, 0x8b, 0xc8, 0xbd, 0xfb, 0x6b, 0x86, 0xbe, 0x40, 0x24, 0xe9, 0xbb,
  0x7e, 0xe5, 0x87, 0xbe, 0x5b, 0xf4, 0x8a, 0x3e, 0x60, 0x69, 0xcc, 0x3d,
  0xe4, 0xd7, 0x1f, 0xbe, 0x60, 0x15, 0xe4, 0xbd, 0x50, 0xaf, 0xde, 0xbc,
  0x28, 0xae, 0xcb, 0xbd, 0x62, 0xc5, 0x41, 0xbe, 0x9f, 0xfb, 0x8d, 0x3e,
  0x70, 0xa7, 0x36, 0xbd, 0x3e, 0x0f, 0xa7, 0xbd, 0xf0, 0x63, 0x72, 0xbe,
  0x75, 0xaf, 0x16, 0xbe, 0x5a, 0xb4, 0x8d, 0xbd, 0x4a, 0x21, 0x9e, 0xbd,
  0x28, 0xe5, 0xad, 0x3d, 0xb8, 0x9b, 0x4b, 0x3d, 0x08, 0xe1, 0x30, 0xbe,
  0x80, 0x26, 0x16, 0xbb, 0xb2, 0xb7, 0x6a, 0x3e, 0x70, 0x04, 0xf7, 0x3c,
  0x80, 0x1e, 0x36, 0xbc, 0x44, 0x26, 0x8d, 0xbe, 0xb5, 0xbf, 0x91, 0xbe,
  0xb8, 0x21, 0xc4, 0x3d, 0x5e, 0x38, 0x8c, 0xbe, 0x8b, 0x3e, 0x84, 0xbe,
  0x80, 0x9f, 0x09, 0xbc, 0x4c, 0xf1, 0xb3, 0xbd, 0x14, 0x13, 0x80, 0xbe,
  0x50, 0x7d, 0x1d, 0xbe, 0x30, 0xe8, 0x08, 0x3e, 0xb8, 0xb6, 0xe4, 0xbd,
  0x54, 0x02, 0x92, 0x3e, 0x50, 0x8c, 0xc7, 0x3d, 0x15, 0x9f, 0x35, 0xbe,
  0xc0, 0x22, 0x8a, 0x3e, 0xa5, 0xe7, 0x95, 0xbe, 0x3f, 0x6f, 0x68, 0xbe,
  0xb7, 0xb6, 0x16, 0xbe, 0x8b, 0x27, 0x5f, 0x3e, 0xd6, 0x7b, 0x58, 0x3e,
  0xca, 0x00, 0x5a, 0x3d, 0xb5, 0x46, 0x06, 0x3f, 0x90, 0x5a, 0x3b, 0xbe,
  0xe4, 0x1d, 0xdd, 0xbc, 0x01, 0xca, 0xa4, 0x3e, 0x81, 0x89, 0xda, 0x3e,
  0x5e, 0xe1, 0xd3, 0x3f, 0x2c, 0x56, 0xf4, 0x3e, 0x3f, 0x67, 0x78, 0xbc,
  0x1a, 0xe3, 0x10, 0x3e, 0xc5, 0x31, 0xb4, 0x3e, 0x5a, 0xc0, 0x1f, 0x3f,
  0x6b, 0x9b, 0x07, 0x3e, 0xcc, 0x07, 0x25, 0xbe, 0xc3, 0xb9, 0x03, 0x3e,
  0x00, 0x93, 0x6a, 0xbd, 0x81, 0x7d, 0xa7, 0xbe, 0xae, 0x6e, 0xb4, 0x3d,
  0xeb, 0xd7, 0xa2, 0x3e, 0x3b, 0xa6, 0x1f, 0xbc, 0x47, 0x3f, 0x95, 0x3f,
  0x4d, 0xa6, 0x26, 0x3e, 0x34, 0x6f, 0x11, 0x3e, 0xfb, 0x99, 0x79, 0x3e,
  0xbd, 0x9f, 0x70, 0x3e, 0x70, 0x93, 0x07, 0x3b, 0x53, 0x65, 0x6a, 0x3e,
  0x3b, 0x49, 0x20, 0x3f, 0x1c, 0xc5, 0xcf, 0x3d, 0xd0, 0xf6, 0xf8, 0xbc,
  0xd6, 0x60, 0x04, 0xbe, 0xe2, 0x04, 0xa7, 0x3e, 0x05, 0xdc, 0x86, 0x3d,
  0x61, 0x6d, 0x96, 0xbe, 0xba, 0x8f, 0x05, 0x3f, 0x93, 0x89, 0x6d, 0xbe,
  0x54, 0x0e, 0x1f, 0xbf, 0x1e, 0xf5, 0x05, 0xbd, 0x04, 0x6e, 0x63, 0xbe,
  0xe4, 0xde, 0x94, 0xbe, 0x3e, 0x98, 0x5a, 0x3e, 0x90, 0x34, 0x18, 0x3f,
  0xea, 0x7a, 0xce, 0x3c, 0xaa, 0x2b, 0xc7, 0xbe, 0x32, 0x57, 0xd1, 0x3e,
  0xb1, 0xd4, 0x0e, 0x3d, 0x97, 0x63, 0x74, 0xbe, 0x47, 0x07, 0x82, 0xbd,
  0x4d, 0x92, 0xdd, 0xbd, 0xf5, 0x1e, 0x1b, 0xbe, 0x97, 0x0b, 0x28, 0x3e,
  0xba, 0x04, 0x17, 0xbe, 0x8c, 0xb3, 0xcd, 0xbc, 0x5a, 0x19, 0x29, 0x3e,
  0xce, 0x59, 0xfd, 0x3d, 0x63, 0x5a, 0x92, 0x3f, 0xe1, 0xc5, 0x8e, 0x3e,
  0x61, 0x18, 0xa8, 0x3d, 0x85, 0x71, 0xb2, 0x3e, 0xaa, 0xa0, 0x87, 0xbd,
  0x1c, 0xc2, 0x66, 0x3e, 0xf6, 0xc7, 0x5f, 0x3e, 0xa1, 0x1f, 0xca, 0xbd,
  0x93, 0x08, 0x6d, 0xbe, 0x7c, 0x1a, 0x94, 0xbe, 0x0a, 0x48, 0x94, 0x3e,
  0xf6, 0x51, 0x25, 0x3e, 0x49, 0x31, 0x38, 0xbe, 0x08, 0xe7, 0x45, 0xbd,
  0xdb, 0x94, 0x06, 0x3f, 0xac, 0x25, 0x25, 0x3e, 0x98, 0xe9, 0xa6, 0x3d,
  0xb1, 0x53, 0x13, 0x3e, 0x55, 0x91, 0xd4, 0xbd, 0x4b, 0x06, 0x0e, 0xbe,
  0x80, 0x01, 0xc6, 0x3d, 0xa0, 0x71, 0x9a, 0xbe, 0x47, 0x66, 0xc9, 0x3e,
  0x7e, 0x5c, 0xdc, 0x3d, 0xc6, 0x35, 0x85, 0x3e, 0x4b, 0x1f, 0x02, 0x3f,
  0x87, 0x1d, 0x26, 0x3f, 0xbf, 0x0c, 0x10, 0x3e, 0x59, 0x9e, 0x6f, 0x3d,
  0x84, 0x57, 0x3d, 0x3e, 0x6d, 0xd6, 0x11, 0x3f, 0xf5, 0xcd, 0xd9, 0x3e,
  0x95, 0xc8, 0xe9, 0x3e, 0x8a, 0xa4, 0x80, 0x3e, 0xd1, 0x4f, 0x8f, 0xbe,
  0x6e, 0xf5, 0x31, 0xbe, 0x57, 0x2a, 0xa9, 0xbc, 0x83, 0x99, 0x78, 0x3d,
  0x0d, 0x3a, 0x88, 0x3e, 0x9b, 0x2d, 0xe2, 0x3c, 0x1e, 0x3c, 0xf7, 0xbe,
  0xcd, 0xc2, 0x0f, 0xbe, 0xeb, 0x04, 0x09, 0xbf, 0xd4, 0x5e, 0x73, 0x3e,
  0xc2, 0xd9, 0x74, 0x3d, 0x41, 0x1e, 0x29, 0xbe, 0xdb, 0x1d, 0xd7, 0xbd,
  0x0f, 0x50, 0xc4, 0x3e, 0xad, 0xda, 0xa0, 0x3e, 0x51, 0x03, 0x44, 0xbe,
  0x5c, 0xbb, 0xbb, 0x3e, 0x6a, 0x92, 0xbd, 0x3e, 0x92, 0x76, 0x9b, 0x3e,
  0x22, 0x4d, 0xf3, 0x3c, 0xa0, 0x1e, 0x8f, 0x3e, 0xc2, 0x1c, 0xa1, 0x3e,
  0x37, 0x40, 0x0f, 0xbf, 0xe9, 0xf0, 0x8a, 0x3e, 0xc0, 0xdb, 0x1e, 0x3e,
  0x9f, 0xd2, 0x27, 0x3d, 0x39, 0x2d, 0xdd, 0xbd, 0x33, 0xcc, 0x2c, 0xbe,
  0xe0, 0xd0, 0xec, 0x3c, 0x1a, 0xf4, 0x4b, 0x3e, 0xd0, 0x47, 0xdb, 0x3c,
  0x8c, 0xde, 0x76, 0xbe, 0xba, 0x10, 0x2b, 0x3e, 0x12, 0x72, 0xe3, 0xbd,
  0x80, 0x55, 0x46, 0x3e, 0xb0, 0x9a, 0x91, 0x3c, 0xaa, 0x35, 0x0e, 0x3e,
  0x1e, 0xbb, 0x4e, 0xbe, 0x67, 0xa8, 0x40, 0xbe, 0x10, 0x8a, 0xd8, 0xbc,
  0xdc, 0x14, 0x99, 0xbd, 0xe0, 0xdb, 0xca, 0xbd, 0xe0, 0x39, 0xf1, 0x3c,
  0xa2, 0x68, 0x5f, 0xbe, 0x74, 0xa0, 0x16, 0x3e, 0x5e, 0x93, 0xad, 0xbd,
  0xf8, 0x62, 0x4e, 0x3e, 0xcf, 0x88, 0x89, 0x3e, 0x70, 0xc1, 0xa3, 0xbd,
  0x9b, 0x89, 0x80, 0xbe, 0x5c, 0x3a, 0x42, 0x3e, 0x12, 0xb8, 0xea, 0xbd,
  0x44, 0x0c, 0xba, 0x3d, 0x00, 0x91, 0xa5, 0x3d, 0x90, 0xb9, 0x54, 0x3e,
  0x19, 0xf6, 0x01, 0xbe, 0x62, 0x64, 0x4c, 0xbe, 0x40, 0x59, 0x4e, 0x3e,
  0xe4, 0x0a, 0x54, 0xbe, 0x70, 0xdc, 0xf4, 0xbc, 0xe6, 0xe4, 0x76, 0xbe,
  0x00, 0xef, 0x81, 0xbb, 0xee, 0xd2, 0x20, 0xbe, 0xb2, 0xed, 0x74, 0xbe,
  0x6c, 0xb5, 0x32, 0xbe, 0x70, 0xb6, 0x36, 0x3e, 0xfa, 0x62, 0x49, 0xbe,
  0xd6, 0x9a, 0x3c, 0xbe, 0xc0, 0x03, 0xfe, 0x3b, 0x12, 0x4f, 0x54, 0x3e,
  0xe0, 0x9b, 0x6e, 0x3d, 0x40, 0x9a, 0x17, 0xbe, 0xd6, 0x63, 0x87, 0xbe,
  0xf5, 0x0a, 0x87, 0xbe, 0xd0, 0xf7, 0x15, 0x3e, 0xcc, 0xf0, 0x86, 0xbe,
  0xd8, 0x2d, 0x2e, 0x3e, 0x6c, 0x0c, 0x1c, 0xbd, 0xca, 0xc5, 0x66, 0xbe,
  0x70, 0xd8, 0xd3, 0xbc, 0x84, 0x07, 0xa7, 0x3d, 0x1c, 0x91, 0x34, 0x3e,
  0x80, 0xdd, 0x94, 0x3b, 0xe9, 0x9b, 0x37, 0xbe, 0x00, 0xb4, 0x3c, 0x3b,
  0x9e, 0x02, 0x71, 0x3e, 0x00, 0x37, 0xad, 0xba, 0x40, 0x58, 0xc1, 0xbd,
  0x58, 0x59, 0x7d, 0xbd, 0x6e, 0x0a, 0x19, 0x3e, 0xf1, 0x42, 0x8c, 0xbe,
  0xf6, 0xf7, 0x03, 0x3e, 0x73, 0x61, 0x90, 0xbe, 0xd6, 0x08, 0x2d, 0xbe,
  0x49, 0x1b, 0x87, 0x3e, 0xa0, 0x18, 0x20, 0xbd, 0x16, 0x47, 0x11, 0x3e,
  0xda, 0x12, 0x78, 0x3e, 0x40, 0x4d, 0x69, 0xbe, 0x37, 0xcd, 0x00, 0xbe,
  0xeb, 0xcd, 0x8a, 0x3e, 0x16, 0x12, 0xf4, 0xbd, 0x4e, 0xfa, 0x79, 0xbe,
  0x48, 0x84, 0xf3, 0x3d, 0x42, 0x9a, 0x7e, 0x3e, 0xdd, 0x00, 0x43, 0xbe,
  0x0e, 0xd8, 0x23, 0xbe, 0x10, 0xc0, 0xc5, 0x3d, 0xba, 0xdf, 0x42, 0x3e,
  0x28, 0x39, 0x19, 0xbd, 0xc0, 0x82, 0xa9, 0x3d, 0x4e, 0xd6, 0x22, 0x3e,
  0xf2, 0xf5, 0xff, 0xff, 0x04, 0x00, 0x00, 0x00, 0x80, 0x00, 0x00, 0x00,
  0x09, 0x09, 0x57, 0xbc, 0xaa, 0x1a, 0xa7, 0x3d, 0x00, 0x00, 0x00, 0x00,
  0x72, 0xe4, 0x27, 0xbe, 0xe0, 0x98, 0x55, 0x3c, 0xe8, 0x80, 0xb0, 0x3d,
  0x00, 0x00, 0x00, 0x00, 0xc4, 0xd7, 0x6a, 0x3a, 0x9c, 0xba, 0x77, 0x3d,
  0x00, 0x00, 0x00, 0x00, 0x00, 0x00, 0x00, 0x00, 0x00, 0x00, 0x00, 0x00,
  0x10, 0xdf, 0x52, 0x3d, 0xfb, 0x54, 0xa7, 0x3c, 0x8c, 0x99, 0x20, 0x3e,
  0x6b, 0x00, 0x79, 0x3d, 0x00, 0x00, 0x00, 0x00, 0x7c, 0x18, 0x9b, 0x3c,
  0x4e, 0x3d, 0xd1, 0xbc, 0x00, 0x00, 0x00, 0x00, 0xd9, 0x8c, 0x5a, 0x3d,
  0xca, 0x8d, 0x9e, 0x3c, 0x00, 0x00, 0x00, 0x00, 0x2c, 0x01, 0x03, 0x3d,
  0x00, 0x00, 0x00, 0x00, 0xec, 0x5a, 0x9f, 0x3d, 0x00, 0x00, 0x00, 0x00,
  0x20, 0x5d, 0x5c, 0x3d, 0xf4, 0x91, 0x27, 0x3d, 0x1f, 0x6a, 0xa0, 0x3d,
  0x00, 0x00, 0x00, 0x00, 0x00, 0x00, 0x00, 0x00, 0x7e, 0xf6, 0xff, 0xff,
  0x04, 0x00, 0x00, 0x00, 0x3c, 0x00, 0x00, 0x00, 0x00, 0x00, 0x00, 0x00,
  0x4e, 0xfe, 0x88, 0x3d, 0xed, 0x02, 0x96, 0xbc, 0x77, 0x8d, 0x00, 0x3e,
  0x85, 0x72, 0xa6, 0x3c, 0x1a, 0x58, 0x7d, 0x3c, 0x16, 0x5c, 0xf3, 0x3c,
  0xe3, 0x30, 0x3c, 0xbd, 0xc0, 0x91, 0x91, 0x3c, 0x00, 0x00, 0x00, 0x00,
  0xfd, 0x50, 0x16, 0x3e, 0x00, 0x00, 0x00, 0x00, 0xa7, 0xed, 0x41, 0x3e,
  0xad, 0x29, 0x05, 0x3a, 0x53, 0xd2, 0x51, 0xbd, 0xc6, 0xf6, 0xff, 0xff,
  0x04, 0x00, 0x00, 0x00, 0x10, 0x00, 0x00, 0x00, 0xe5, 0x1c, 0xb4, 0x3d,
  0x38, 0xab, 0x85, 0x3d, 0x71, 0x6c, 0x86, 0xbd, 0xc8, 0x16, 0x01, 0xbe,
  0xe2, 0xf6, 0xff, 0xff, 0x04, 0x00, 0x00, 0x00, 0x80, 0x07, 0x00, 0x00,
  0x18, 0xe1, 0xa2, 0x3e, 0xa0, 0x36, 0xb0, 0xbc, 0x80, 0x70, 0xa6, 0xbe,
  0x71, 0x8f, 0xa2, 0xbe, 0x33, 0xeb, 0x48, 0xbe, 0x45, 0xa0, 0x5c, 0xbe,
  0x20, 0x59, 0x0b, 0x3d, 0xf8, 0x74, 0x88, 0xbe, 0xee, 0x93, 0xa8, 0x3e,
  0x08, 0x9e, 0x58, 0x3e, 0x5c, 0x08, 0xb7, 0x3d, 0x06, 0x2f, 0xab, 0x3e,
  0x5f, 0xab, 0x03, 0xbe, 0xf9, 0x78, 0x46, 0xbe, 0x18, 0x68, 0x14, 0x3e,
  0x2d, 0x88, 0x9c, 0xbe, 0xd8, 0x7a, 0x97, 0xbe, 0x18, 0x84, 0xb2, 0xbe,
  0xdc, 0x92, 0xd8, 0xbd, 0x00, 0x0b, 0x26, 0x3e, 0x50, 0xc9, 0xb5, 0xbc,
  0x20, 0x71, 0x29, 0x3e, 0x2c, 0xd6, 0x8a, 0xbd, 0x3e, 0x30, 0x6d, 0xbe,
  0x08, 0xe0, 0xb7, 0x3d, 0x30, 0xa4, 0xce, 0xbc, 0x90, 0xd9, 0x3f, 0xbd,
  0x64, 0xd7, 0x7d, 0xbe, 0x75, 0x2e, 0x2e, 0xbe, 0xf6, 0x83, 0xa5, 0x3e,
  0x7a, 0xd6, 0x93, 0x3e, 0xba, 0x67, 0x4f, 0xbe, 0xac, 0x59, 0xf8, 0xbd,
  0x1a, 0x50, 0x16, 0x3d, 0xb0, 0x4f, 0xe5, 0xbc, 0xbf, 0xb8, 0xba, 0xbd,
  0xe4, 0x02, 0x1e, 0x3e, 0xe1, 0xf1, 0xe4, 0x3d, 0x17, 0x9e, 0x3a, 0xbe,
  0x70, 0x41, 0x86, 0xbf, 0x4a, 0x09, 0xfc, 0x3e, 0x10, 0x75, 0xe1, 0xbc,
  0x66, 0x14, 0xae, 0x3e, 0x52, 0xb3, 0x83, 0xbe, 0x26, 0x52, 0xb1, 0xbe,
  0x79, 0x92, 0x16, 0x3f, 0xe9, 0x5c, 0xcb, 0x3e, 0x32, 0x43, 0x46, 0x3f,
  0x5a, 0xe4, 0x8e, 0x3e, 0xa6, 0xcf, 0xce, 0x3f, 0xdb, 0x12, 0x79, 0xbf,
  0xda, 0x31, 0xa7, 0x3e, 0xfd, 0x4e, 0x06, 0xbf, 0x1e, 0xb4, 0x9b, 0xbd,
  0x6e, 0xf8, 0xa6, 0x3e, 0x10, 0x6f, 0x43, 0xbf, 0x80, 0x10, 0xa6, 0xbd,
  0x7c, 0xa8, 0xe8, 0x3d, 0x0e, 0x3d, 0x8e, 0x3e, 0xc4, 0x53, 0xb7, 0xbe,
  0xb9, 0x4e, 0x81, 0xbe, 0x1d, 0x02, 0x96, 0x3e, 0xa8, 0x34, 0xaa, 0x3e,
  0x80, 0xbc, 0x52, 0x3b, 0x96, 0x37, 0x49, 0x3d, 0x61, 0xba, 0x8f, 0x3e,
  0x04, 0xfd, 0x52, 0xbe, 0xb2, 0x37, 0x0c, 0x3e, 0x06, 0x92, 0x2e, 0xbe,
  0x71, 0xef, 0xa4, 0xbe, 0xd3, 0x2b, 0x08, 0xbe, 0x48, 0xee, 0x93, 0xbe,
  0xa9, 0x83, 0x9d, 0xbd, 0x90, 0x10, 0x84, 0xbe, 0x54, 0x08, 0x75, 0xbe,
  0x90, 0xf0, 0x8d, 0x3d, 0x6e, 0xc0, 0xc6, 0xbd, 0x9c, 0x9b, 0xad, 0x3e,
  0xd0, 0xfb, 0xa4, 0xbe, 0x83, 0x9b, 0x80, 0xbd, 0x00, 0x80, 0x82, 0x3e,
  0xa8, 0xe7, 0x18, 0x3e, 0x42, 0x1d, 0xc3, 0x3c, 0xac, 0x59, 0xca, 0x3d,
  0x35, 0x96, 0x87, 0xbe, 0xb8, 0x09, 0xb9, 0xbd, 0x38, 0xac, 0x8b, 0xbe,
  0xd6, 0x2a, 0x7e, 0xbe, 0x8c, 0x5c, 0xbe, 0x3d, 0x7c, 0xb3, 0x8a, 0xbc,
  0x3d, 0x0f, 0x06, 0xbe, 0xf3, 0x76, 0x7b, 0xbc, 0xc6, 0x54, 0x94, 0x3e,
  0x19, 0x41, 0x80, 0x3e, 0x30, 0x20, 0x87, 0xbe, 0xe4, 0x65, 0x8d, 0x3e,
  0x21, 0xa1, 0xe1, 0xbc, 0x4f, 0x3a, 0x24, 0x3f, 0xdb, 0x5b, 0x20, 0xbe,
  0xa3, 0xfc, 0xfa, 0xbe, 0x80, 0x75, 0xb1, 0xbe, 0x06, 0xb7, 0x52, 0x3e,
  0x60, 0x64, 0x01, 0xbe, 0x97, 0x23, 0x9d, 0xbe, 0xe4, 0x8f, 0xd4, 0xbd,
  0xe0, 0x10, 0x82, 0x3e, 0x03, 0x7e, 0xad, 0xbe, 0x23, 0x2a, 0xa8, 0xbe,
  0xaf, 0xbb, 0x91, 0x3e, 0x5d, 0x5d, 0xe5, 0xbd, 0x77, 0xfe, 0xdb, 0x3e,
  0xd7, 0x2b, 0xec, 0xbd, 0xf8, 0x9d, 0x51, 0x3e, 0x8f, 0xdc, 0x8d, 0xbf,
  0x0c, 0xbe, 0x62, 0x3b, 0x48, 0x65, 0x9a, 0xbe, 0xd0, 0x5e, 0xdb, 0xbd,
  0x48, 0x83, 0x1d, 0xbe, 0x04, 0x83, 0xf5, 0x3d, 0x47, 0xde, 0xf9, 0x3e,
  0x06, 0x7b, 0x05, 0x3e, 0x72, 0xf0, 0x16, 0x3f, 0x3a, 0x87, 0x87, 0x3e,
  0x3e, 0x52, 0xa3, 0xbd, 0xf3, 0x6e, 0x07, 0x3f, 0x82, 0x65, 0x2f, 0x3e,
  0xc0, 0xba, 0x63, 0xbc, 0x00, 0x79, 0x30, 0xbe, 0x9e, 0xb6, 0xe4, 0x3d,
  0xc5, 0x05, 0x2a, 0xbf, 0xb5, 0x51, 0xb5, 0xbe, 0x31, 0x34, 0xa0, 0x3d,
  0x5c, 0xea, 0x2c, 0x3f, 0x92, 0x9a, 0x0f, 0xbe, 0xd8, 0x41, 0x8a, 0x3d,
  0xdc, 0x77, 0x91, 0xbc, 0x60, 0x58, 0x90, 0xbf, 0xb8, 0xd7, 0x69, 0x3e,
  0x2c, 0x8a, 0x93, 0x3e, 0x24, 0x73, 0x8b, 0x3e, 0xe0, 0x0c, 0x07, 0xbd,
  0xeb, 0x4e, 0x76, 0xbd, 0xd9, 0x61, 0x1a, 0x3e, 0x82, 0x5b, 0xca, 0x3e,
  0xd3, 0xf8, 0x3d, 0xbe, 0x66, 0xf1, 0xbb, 0xbf, 0xf3, 0x33, 0xc2, 0x3e,
  0x64, 0xf3, 0xfd, 0x3d, 0xf0, 0x30, 0x6c, 0xbf, 0x20, 0x35, 0xce, 0x3e,
  0x78, 0x72, 0xeb, 0x3d, 0x4a, 0xe3, 0x86, 0xbe, 0x1e, 0x11, 0x91, 0x3e,
  0xe2, 0xcc, 0x5d, 0xbd, 0x26, 0xf6, 0xa7, 0x3e, 0x16, 0x25, 0xf3, 0x3d,
  0x94, 0x1e, 0x3e, 0xbf, 0x14, 0x11, 0xc2, 0x3e, 0xf0, 0x99, 0x32, 0xbd,
  0x00, 0x42, 0xb8, 0xbb, 0xb8, 0xf2, 0x06, 0x3b, 0x28, 0x31, 0x09, 0xbf,
  0xfd, 0x69, 0xac, 0xbe, 0xf9, 0x19, 0x92, 0xbd, 0x06, 0x03, 0x13, 0x3e,
  0xc8, 0xcc, 0x2c, 0xbf, 0xfb, 0xde, 0x3a, 0xbe, 0x40, 0xa7, 0x75, 0x3e,
  0x28, 0xe0, 0xaa, 0xbf, 0x3e, 0xe5, 0x09, 0x3e, 0x68, 0x52, 0x75, 0x3d,
  0x04, 0x50, 0xb2, 0xbe, 0xa6, 0x96, 0x03, 0x3f, 0x33, 0x20, 0x25, 0xbf,
  0xce, 0x34, 0xc1, 0x3e, 0xde, 0x2b, 0x8f, 0xbe, 0xd4, 0x4e, 0x20, 0x3e,
  0x3e, 0xd0, 0xe6, 0xbf, 0x60, 0x77, 0x35, 0x3f, 0x00, 0x9d, 0xcc, 0x3c,
  0x61, 0xae, 0x58, 0xbf, 0x67, 0x3b, 0xad, 0x3e, 0x34, 0xa0, 0x6d, 0x3e,
  0xbc, 0x89, 0x71, 0x3c, 0x20, 0x9d, 0x1c, 0xbc, 0xc0, 0xbc, 0x04, 0x3f,
  0x4c, 0xb6, 0x45, 0x3e, 0x00, 0x3b, 0x35, 0x3f, 0x44, 0xac, 0x29, 0xbf,
  0x79, 0xbb, 0x78, 0x3e, 0x84, 0xdb, 0x5b, 0x3e, 0x8d, 0x94, 0x11, 0xbe,
  0x50, 0x54, 0x0e, 0x3e, 0xd1, 0xe8, 0x6b, 0xbf, 0x8e, 0x8e, 0x4d, 0xbe,
  0xb9, 0x09, 0xb2, 0x3e, 0x3c, 0xe5, 0x21, 0x3e, 0x31, 0x77, 0xa0, 0xbe,
  0x50, 0xa4, 0x6e, 0x3d, 0xcd, 0xe5, 0xbb, 0x3d, 0xc4, 0xb7, 0x5c, 0xbf,
  0xae, 0xe5, 0xe1, 0xbd, 0xbe, 0xfb, 0x94, 0x3e, 0x00, 0x23, 0x0b, 0x3d,
  0x91, 0x4f, 0xcd, 0x3e, 0xf2, 0xd4, 0x4f, 0xbe, 0xcb, 0xa4, 0xc9, 0x3e,
  0xd0, 0x48, 0x03, 0x3e, 0x98, 0xcf, 0xbd, 0x3d, 0x7f, 0x4e, 0xe1, 0xbf,
  0xc0, 0xb2, 0xe8, 0x3e, 0x98, 0x61, 0x7e, 0x3e, 0xd9, 0x4c, 0xe8, 0xbe,
  0x1c, 0xd5, 0x17, 0xbe, 0x94, 0xc6, 0xa3, 0xbe, 0x9d, 0xc5, 0xac, 0x3e,
  0xec, 0x42, 0x81, 0x3e, 0xc2, 0x9b, 0x1e, 0x3f, 0x2e, 0x6b, 0x83, 0x3e,
  0xe6, 0x78, 0x37, 0x3f, 0x4a, 0x91, 0x21, 0xbf, 0x3e, 0x6f, 0x4b, 0xbe,
  0xf5, 0x01, 0x9d, 0xbe, 0xb8, 0xca, 0x42, 0xbe, 0x96, 0x9d, 0xb9, 0x3c,
  0x22, 0xd3, 0x38, 0xbd, 0x38, 0x5d, 0xd1, 0x3d, 0x84, 0x19, 0x0d, 0x3f,
  0x08, 0x5b, 0x63, 0xbf, 0xe1, 0xd4, 0xc4, 0x3e, 0x48, 0xaa, 0x3a, 0xbe,
  0xc9, 0x68, 0x25, 0x3f, 0xe6, 0xd8, 0xad, 0x3f, 0xb0, 0xb5, 0xa4, 0xbe,
  0x0c, 0x2f, 0xa5, 0x3d, 0x18, 0xfd, 0x31, 0xbd, 0xd5, 0x38, 0x29, 0xbe,
  0x7b, 0xf6, 0xda, 0x3e, 0x7f, 0x83, 0xd1, 0xbe, 0x96, 0x28, 0x40, 0x3f,
  0x84, 0xe1, 0x8c, 0x3e, 0x6f, 0x82, 0xe3, 0x3f, 0xcd, 0xc2, 0x05, 0x3f,
  0x10, 0xbd, 0xef, 0x3c, 0x79, 0xc7, 0x4f, 0x3f, 0xbb, 0x0d, 0x1b, 0x3e,
  0xa3, 0x88, 0xa4, 0xbe, 0x4f, 0x08, 0x06, 0xbf, 0xd1, 0x00, 0x3c, 0xbe,
  0x02, 0x39, 0x84, 0xbf, 0x50, 0x08, 0x04, 0xbe, 0x9f, 0x8f, 0x18, 0xbe,
  0x0e, 0x22, 0x0b, 0x3f, 0xaa, 0x9b, 0xa1, 0x3e, 0xfc, 0x1f, 0xb8, 0x3d,
  0x7e, 0x3c, 0x94, 0x3e, 0xa4, 0x75, 0x99, 0xbe, 0x46, 0x2c, 0xd4, 0x3c,
  0x70, 0x87, 0xd7, 0x3c, 0x56, 0x95, 0xab, 0x3e, 0x4d, 0x8f, 0x39, 0xbf,
  0x08, 0x3f, 0x3b, 0xbe, 0x28, 0xb2, 0x6a, 0xbe, 0x64, 0x0a, 0xa3, 0x3f,
  0xab, 0x42, 0xd4, 0x3e, 0xac, 0x02, 0x67, 0x3e, 0xfb, 0x60, 0x35, 0xbe,
  0xca, 0x4e, 0x87, 0x3e, 0xab, 0x76, 0x0b, 0x3f, 0x06, 0x97, 0x95, 0xbe,
  0x55, 0x44, 0x03, 0x3d, 0x40, 0x93, 0xa1, 0xbe, 0x8c, 0x54, 0x26, 0x3e,
  0x7a, 0xb0, 0x91, 0xbe, 0xf4, 0xf2, 0x8e, 0x3f, 0x00, 0x98, 0x5e, 0x3b,
  0x40, 0xd6, 0x52, 0x3f, 0xdd, 0xea, 0xf5, 0xbc, 0x8e, 0xd0, 0xb1, 0x3e,
  0x43, 0x57, 0x4d, 0x3f, 0x06, 0x18, 0xb5, 0x3e, 0x83, 0xd9, 0x23, 0xbe,
  0x3c, 0xff, 0x72, 0xbe, 0x30, 0x89, 0xfa, 0x3e, 0xb8, 0xfb, 0x01, 0x3f,
  0x5a, 0xa8, 0xe3, 0x3d, 0x98, 0x6b, 0x6e, 0x3e, 0xd6, 0x14, 0x11, 0x3e,
  0x80, 0x4c, 0xe5, 0x3d, 0xd5, 0x7e, 0x8b, 0xbe, 0x5c, 0xb1, 0x24, 0x3e,
  0x81, 0xbf, 0x91, 0xbe, 0xb0, 0xc4, 0x81, 0xbd, 0xda, 0x66, 0x8c, 0x3e,
  0x70, 0x47, 0xc8, 0xbc, 0x3e, 0x95, 0xfb, 0xbd, 0x04, 0x54, 0x1b, 0x3e,
  0x36, 0x29, 0xa7, 0x3e, 0x44, 0xd8, 0x81, 0x3e, 0x94, 0x4d, 0x84, 0x3e,
  0x13, 0xab, 0x68, 0xbe, 0xc8, 0x9c, 0x2e, 0x3d, 0x80, 0x96, 0xa5, 0xbc,
  0xe5, 0x78, 0x67, 0xbe, 0x9e, 0x6e, 0x4a, 0xbe, 0xda, 0x6e, 0x9b, 0xbe,
  0x2c, 0xb3, 0x52, 0x3e, 0xd4, 0x84, 0x83, 0x3d, 0x63, 0x33, 0xb1, 0xbe,
  0x08, 0x4a, 0xdd, 0x3d, 0x78, 0x5a, 0x70, 0x3e, 0x40, 0x33, 0x6e, 0xbd,
  0x74, 0x5a, 0x9e, 0x3e, 0xbe, 0xa2, 0xa0, 0x3e, 0xac, 0xf5, 0x58, 0x3e,
  0xa3, 0xe9, 0x62, 0xbe, 0xf8, 0xae, 0x72, 0x3d, 0x84, 0x7c, 0x9b, 0xbe,
  0x71, 0x72, 0xa6, 0xbe, 0x2c, 0x4e, 0x3c, 0x3e, 0x62, 0x5e, 0x88, 0x3e,
  0x7a, 0xa2, 0x9b, 0x3f, 0x70, 0xa4, 0x30, 0x3e, 0x1a, 0x40, 0x2d, 0xbf,
  0xfa, 0x2c, 0x6d, 0xbe, 0x3e, 0xf2, 0x3e, 0x3f, 0x22, 0x6d, 0x90, 0xbe,
  0x7f, 0x3d, 0x12, 0x3d, 0x53, 0x46, 0xbb, 0x3f, 0x28, 0x31, 0x8c, 0x3e,
  0x31, 0xcc, 0x1b, 0xbe, 0x80, 0x31, 0x91, 0x3b, 0x63, 0x10, 0xb2, 0x3e,
  0xc5, 0xce, 0xda, 0x3e, 0x7d, 0x4b, 0x8c, 0x3e, 0x54, 0xe6, 0x39, 0xbd,
  0x18, 0x7e, 0x26, 0x3e, 0x28, 0x5b, 0xe3, 0x3f, 0xba, 0xa3, 0xaa, 0xbe,
  0x48, 0xa0, 0x6d, 0x3e, 0x88, 0xd7, 0x66, 0x3f, 0xc2, 0xe2, 0xe4, 0xbc,
  0xa5, 0x92, 0xae, 0xbe, 0x21, 0x6c, 0x67, 0x3d, 0xd0, 0xc0, 0x33, 0xbd,
  0x63, 0x17, 0x94, 0xbe, 0x75, 0x5b, 0x88, 0xbe, 0x0f, 0xcc, 0xad, 0x3d,
  0xb7, 0xe5, 0x99, 0x3f, 0xba, 0xf7, 0xc6, 0xbd, 0x1f, 0x3e, 0x74, 0xbe,
  0x5a, 0xab, 0xdf, 0xbd, 0x40, 0xd5, 0xa2, 0x3c, 0x5a, 0x71, 0xe9, 0xbd,
  0xcb, 0x42, 0x88, 0xbe, 0xfe, 0x71, 0xa5, 0xbe, 0x55, 0xd7, 0x32, 0xbe,
  0x30, 0xca, 0x73, 0xbd, 0x12, 0xa2, 0x66, 0xbe, 0x7c, 0x8e, 0x54, 0x3e,
  0x60, 0xd7, 0xb6, 0xbc, 0x18, 0xef, 0x17, 0x3e, 0x1a, 0x7f, 0x91, 0xbe,
  0x46, 0xa5, 0x36, 0xbe, 0xc4, 0x30, 0x28, 0x3e, 0xee, 0xc4, 0xa5, 0x3e,
  0x80, 0x95, 0x4d, 0xbb, 0x85, 0xbb, 0xa7, 0xbe, 0x80, 0xe7, 0xbf, 0xbd,
  0x98, 0x09, 0xa4, 0x3e, 0x38, 0xf9, 0x54, 0xbd, 0x1c, 0xc5, 0xbc, 0xbd,
  0xc1, 0xea, 0x81, 0xbe, 0xf8, 0x51, 0xdb, 0xbd, 0x62, 0x30, 0x89, 0xbe,
  0xc0, 0x1d, 0xab, 0xbe, 0x28, 0x55, 0x7a, 0x3e, 0x52, 0xf1, 0x7d, 0xbe,
  0x98, 0x0a, 0x79, 0x3e, 0xe4, 0x38, 0xb0, 0x3d, 0xec, 0x55, 0xb2, 0xbd,
  0xa2, 0x1e, 0x98, 0xbe, 0xa0, 0x52, 0x80, 0x3e, 0xd8, 0x97, 0x17, 0xbe,
  0xf0, 0x10, 0x83, 0x3e, 0x4c, 0x1f, 0x86, 0x3f, 0x6d, 0xe4, 0x8a, 0xbe,
  0x2a, 0x80, 0x4b, 0xbf, 0xd9, 0x8a, 0xbf, 0x3e, 0x3d, 0xb3, 0x44, 0x3f,
  0xb8, 0x14, 0x8b, 0x3e, 0xd1, 0xcb, 0x90, 0xbf, 0xc6, 0x54, 0x45, 0x3f,
  0x35, 0xe1, 0x76, 0xbe, 0xf0, 0x2a, 0xe7, 0xbc, 0x8c, 0x8e, 0x47, 0x3e,
  0xe0, 0x49, 0xba, 0xbd, 0xf8, 0x61, 0xba, 0x3e, 0x8b, 0xd8, 0x47, 0xbe,
  0xac, 0xd4, 0xff, 0x3e, 0x11, 0x04, 0xa9, 0xbe, 0xef, 0x5d, 0x7a, 0x3f,
  0x28, 0xa4, 0x81, 0xbf, 0xbb, 0x72, 0x9e, 0xbe, 0x51, 0x12, 0xdd, 0x3d,
  0x17, 0x52, 0x3b, 0x3e, 0x10, 0xad, 0x9b, 0x3d, 0xdb, 0xeb, 0xa8, 0x3e,
  0x86, 0x88, 0x9c, 0x3e, 0x06, 0x60, 0xbd, 0x3e, 0x04, 0x7e, 0xb2, 0x3e,
  0xba, 0x35, 0x96, 0x3d, 0x5e, 0x77, 0xe8, 0x3e, 0x4c, 0x97, 0x40, 0x3e,
  0xf8, 0xfa, 0x74, 0x3d, 0x8d, 0x88, 0x4d, 0xbe, 0x8c, 0x3d, 0xcf, 0xbc,
  0xad, 0x11, 0x7b, 0xbf, 0x70, 0x81, 0x87, 0x3e, 0x96, 0x79, 0x3b, 0x3f,
  0x69, 0xb3, 0x94, 0x3e, 0x21, 0x1d, 0x63, 0xbe, 0xf4, 0x8e, 0xc8, 0xbd,
  0x55, 0xa8, 0x24, 0xbe, 0x76, 0xfb, 0x36, 0xbf, 0x1a, 0x1e, 0x95, 0xbe,
  0xca, 0x6c, 0x0b, 0xbe, 0x42, 0x34, 0x91, 0xbe, 0xe5, 0x82, 0x88, 0xbe,
  0xed, 0x7a, 0xf5, 0x3d, 0xa6, 0x25, 0xad, 0x3c, 0x5b, 0x57, 0x5b, 0x3f,
  0xc4, 0x55, 0x3f, 0xbe, 0x94, 0xd2, 0x88, 0x3f, 0x15, 0x2a, 0xec, 0xbe,
  0x64, 0xf0, 0x65, 0x3e, 0xb5, 0x92, 0x5a, 0xbf, 0x37, 0x91, 0xe5, 0x3e,
  0x08, 0x73, 0x8d, 0x3e, 0xeb, 0xe3, 0x4c, 0xbf, 0xf9, 0xc7, 0x5c, 0xbe,
  0xa8, 0xc3, 0x57, 0xbe, 0x84, 0x23, 0x21, 0x3e, 0xe0, 0x89, 0x7b, 0x3e,
  0xf4, 0x95, 0x0d, 0xbf, 0xd3, 0xe6, 0xe0, 0x3e, 0x8e, 0x02, 0xa1, 0x3e,
  0x80, 0xc3, 0xf8, 0x3c, 0xca, 0x07, 0x75, 0xbe, 0x40, 0xa0, 0x2b, 0xbe,
  0x30, 0xe2, 0x38, 0x3e, 0xf8, 0x61, 0xbe, 0xbc, 0xc5, 0xcc, 0xc0, 0xbe,
  0x6a, 0x5e, 0x78, 0xbe, 0x88, 0x05, 0x96, 0x3d, 0x5d, 0xb2, 0xdf, 0xbc,
  0x24, 0xa2, 0x30, 0x3e, 0x2c, 0xdd, 0x6d, 0xbe, 0x83, 0xcc, 0x9f, 0xbe,
  0x48, 0xfd, 0x9d, 0x3d, 0x66, 0xd8, 0xc1, 0xbe, 0x0b, 0xc4, 0x20, 0xbc,
  0x44, 0x9c, 0x72, 0x3e, 0x68, 0x51, 0x2b, 0x3e, 0x50, 0xa0, 0x93, 0xbc,
  0x5d, 0x67, 0x8a, 0xbd, 0xd6, 0xb6, 0x41, 0x3e, 0x88, 0xbe, 0x2e, 0x3e,
  0x47, 0xea, 0x8d, 0x3e, 0x31, 0xe1, 0xaf, 0xbe, 0x45, 0xe9, 0x69, 0xbe,
  0x40, 0x11, 0x89, 0xbe, 0x54, 0x8a, 0x95, 0x3e, 0x78, 0xd3, 0x98, 0x3e,
  0x40, 0x24, 0x9a, 0x3b, 0xa7, 0x41, 0x6f, 0x3e, 0x17, 0xb1, 0xaa, 0x3d,
  0x5e, 0xd3, 0xec, 0xbd, 0x80, 0x5a, 0xd8, 0x3d, 0x20, 0x24, 0xc9, 0x3d,
  0x6e, 0xfe, 0xff, 0xff, 0x04, 0x00, 0x00, 0x00, 0xf0, 0x00, 0x00, 0x00,
  0x06, 0x3d, 0xab, 0x3e, 0x31, 0x9d, 0xb0, 0xbf, 0x2a, 0x84, 0x02, 0xbf,
  0x26, 0x64, 0x88, 0x3f, 0xeb, 0x5c, 0x8c, 0xbf, 0x1d, 0xc7, 0xb8, 0xbc,
  0x50, 0x70, 0x95, 0xbe, 0xf8, 0xc1, 0x38, 0xbf, 0x26, 0x3e, 0xb2, 0x3e,
  0x30, 0x65, 0xd3, 0xbd, 0x74, 0x09, 0x3a, 0x3f, 0x44, 0x49, 0x96, 0x3e,
  0xcf, 0x0f, 0x43, 0x3f, 0x34, 0xd9, 0xc5, 0xbf, 0x4c, 0xa5, 0xb8, 0xbd,
  0xe0, 0x29, 0x9c, 0x3e, 0x11, 0x56, 0xac, 0x3f, 0x3d, 0x96, 0x0a, 0xbf,
  0xc8, 0xb5, 0x44, 0xbe, 0xcb, 0x12, 0x02, 0x3e, 0x32, 0x7c, 0x12, 0xbf,
  0x8d, 0x16, 0xc1, 0xbe, 0x95, 0xc7, 0x4d, 0x3f, 0xe8, 0xc7, 0xb3, 0xbf,
  0x7c, 0x30, 0x10, 0x3e, 0x71, 0x58, 0x4c, 0x3d, 0x38, 0xfc, 0xd5, 0x3d,
  0xbc, 0xf2, 0x74, 0x3f, 0xb1, 0xc3, 0x69, 0x3f, 0xfc, 0xaa, 0xbc, 0xbd,
  0x9b, 0x13, 0xe1, 0xbe, 0x7c, 0x4c, 0xc6, 0xbe, 0x65, 0x82, 0xa2, 0xbe,
  0x89, 0xa5, 0xd9, 0xbe, 0x51, 0x2f, 0xb6, 0xbf, 0x85, 0x7f, 0xbb, 0xbf,
  0xa3, 0x85, 0x9a, 0xbf, 0x9c, 0x77, 0x9a, 0x3f, 0x43, 0xe2, 0x72, 0x3f,
  0x00, 0x8a, 0xf1, 0x3b, 0x28, 0x04, 0x55, 0x3f, 0x22, 0xf4, 0x14, 0xbe,
  0x78, 0x48, 0x4b, 0xbe, 0xc3, 0x27, 0xff, 0x3d, 0x51, 0xab, 0x32, 0xbe,
  0x00, 0x9e, 0x92, 0x3a, 0x09, 0xd0, 0x8b, 0xbf, 0x54, 0x90, 0x5e, 0x3e,
  0xf9, 0x48, 0x97, 0xbe, 0xd1, 0x9c, 0x5f, 0x3f, 0x41, 0xc9, 0x88, 0x3f,
  0x35, 0xe9, 0xd3, 0x3e, 0xc6, 0x91, 0xad, 0xbf, 0xf3, 0x30, 0xd5, 0x3d,
  0x50, 0x1c, 0x06, 0xbd, 0xd7, 0x5a, 0xa4, 0xbf, 0x5f, 0xbb, 0xf0, 0xbe,
  0xa9, 0xc4, 0x8c, 0xbf, 0x89, 0x71, 0x37, 0x3f, 0x3e, 0x79, 0xba, 0x3e,
  0x54, 0xfa, 0xff, 0xff, 0x58, 0xfa, 0xff, 0xff, 0x0f, 0x00, 0x00, 0x00,
  0x4d, 0x4c, 0x49, 0x52, 0x20, 0x43, 0x6f, 0x6e, 0x76, 0x65, 0x72, 0x74,
  0x65, 0x64, 0x2e, 0x00, 0x01, 0x00, 0x00, 0x00, 0x14, 0x00, 0x00, 0x00,
  0x00, 0x00, 0x0e, 0x00, 0x18, 0x00, 0x14, 0x00, 0x10, 0x00, 0x0c, 0x00,
  0x08, 0x00, 0x04, 0x00, 0x0e, 0x00, 0x00, 0x00, 0x14, 0x00, 0x00, 0x00,
  0x1c, 0x00, 0x00, 0x00, 0x34, 0x01, 0x00, 0x00, 0x38, 0x01, 0x00, 0x00,
  0x3c, 0x01, 0x00, 0x00, 0x04, 0x00, 0x00, 0x00, 0x6d, 0x61, 0x69, 0x6e,
  0x00, 0x00, 0x00, 0x00, 0x04, 0x00, 0x00, 0x00, 0xdc, 0x00, 0x00, 0x00,
  0x94, 0x00, 0x00, 0x00, 0x50, 0x00, 0x00, 0x00, 0x14, 0x00, 0x00, 0x00,
  0x00, 0x00, 0x0e, 0x00, 0x1a, 0x00, 0x14, 0x00, 0x10, 0x00, 0x0c, 0x00,
  0x0b, 0x00, 0x04, 0x00, 0x0e, 0x00, 0x00, 0x00, 0x1c, 0x00, 0x00, 0x00,
  0x00, 0x00, 0x00, 0x09, 0x1c, 0x00, 0x00, 0x00, 0x20, 0x00, 0x00, 0x00,
  0x01, 0x00, 0x00, 0x00, 0x00, 0x00, 0x06, 0x00, 0x08, 0x00, 0x04, 0x00,
  0x06, 0x00, 0x00, 0x00, 0x00, 0x00, 0x80, 0x3f, 0x01, 0x00, 0x00, 0x00,
  0x0a, 0x00, 0x00, 0x00, 0x01, 0x00, 0x00, 0x00, 0x09, 0x00, 0x00, 0x00,
  0xce, 0xff, 0xff, 0xff, 0x10, 0x00, 0x00, 0x00, 0x00, 0x00, 0x00, 0x08,
  0x0c, 0x00, 0x00, 0x00, 0x10, 0x00, 0x00, 0x00, 0x1c, 0xfb, 0xff, 0xff,
  0x01, 0x00, 0x00, 0x00, 0x09, 0x00, 0x00, 0x00, 0x03, 0x00, 0x00, 0x00,
  0x08, 0x00, 0x00, 0x00, 0x01, 0x00, 0x00, 0x00, 0x03, 0x00, 0x00, 0x00,
  0x00, 0x00, 0x0e, 0x00, 0x14, 0x00, 0x00, 0x00, 0x10, 0x00, 0x0c, 0x00,
  0x0b, 0x00, 0x04, 0x00, 0x0e, 0x00, 0x00, 0x00, 0x10, 0x00, 0x00, 0x00,
  0x00, 0x00, 0x00, 0x08, 0x10, 0x00, 0x00, 0x00, 0x14, 0x00, 0x00, 0x00,
  0xba, 0xff, 0xff, 0xff, 0x00, 0x00, 0x00, 0x01, 0x01, 0x00, 0x00, 0x00,
  0x08, 0x00, 0x00, 0x00, 0x03, 0x00, 0x00, 0x00, 0x07, 0x00, 0x00, 0x00,
  0x02, 0x00, 0x00, 0x00, 0x04, 0x00, 0x00, 0x00, 0x00, 0x00, 0x0e, 0x00,
  0x16, 0x00, 0x00, 0x00, 0x10, 0x00, 0x0c, 0x00, 0x0b, 0x00, 0x04, 0x00,
  0x0e, 0x00, 0x00, 0x00, 0x18, 0x00, 0x00, 0x00, 0x00, 0x00, 0x00, 0x08,
  0x18, 0x00, 0x00, 0x00, 0x1c, 0x00, 0x00, 0x00, 0x00, 0x00, 0x06, 0x00,
  0x08, 0x00, 0x07, 0x00, 0x06, 0x00, 0x00, 0x00, 0x00, 0x00, 0x00, 0x01,
  0x01, 0x00, 0x00, 0x00, 0x07, 0x00, 0x00, 0x00, 0x03, 0x00, 0x00, 0x00,
  0x00, 0x00, 0x00, 0x00, 0x06, 0x00, 0x00, 0x00, 0x05, 0x00, 0x00, 0x00,
  0x01, 0x00, 0x00, 0x00, 0x0a, 0x00, 0x00, 0x00, 0x01, 0x00, 0x00, 0x00,
  0x00, 0x00, 0x00, 0x00, 0x0b, 0x00, 0x00, 0x00, 0xfc, 0x03, 0x00, 0x00,
  0xa4, 0x03, 0x00, 0x00, 0x4c, 0x03, 0x00, 0x00, 0x10, 0x03, 0x00, 0x00,
  0xb4, 0x02, 0x00, 0x00, 0x5c, 0x02, 0x00, 0x00, 0x10, 0x02, 0x00, 0x00,
  0x7c, 0x01, 0x00, 0x00, 0xe0, 0x00, 0x00, 0x00, 0x60, 0x00, 0x00, 0x00,
  0x04, 0x00, 0x00, 0x00, 0x46, 0xfc, 0xff, 0xff, 0x00, 0x00, 0x00, 0x01,
  0x14, 0x00, 0x00, 0x00, 0x1c, 0x00, 0x00, 0x00, 0x1c, 0x00, 0x00, 0x00,
  0x0b, 0x00, 0x00, 0x00, 0x34, 0x00, 0x00, 0x00, 0x02, 0x00, 0x00, 0x00,
  0xff, 0xff, 0xff, 0xff, 0x04, 0x00, 0x00, 0x00, 0x30, 0xfc, 0xff, 0xff,
  0x1b, 0x00, 0x00, 0x00, 0x53, 0x74, 0x61, 0x74, 0x65, 0x66, 0x75, 0x6c,
  0x50, 0x61, 0x72, 0x74, 0x69, 0x74, 0x69, 0x6f, 0x6e, 0x65, 0x64, 0x43,
  0x61, 0x6c, 0x6c, 0x5f, 0x31, 0x3a, 0x30, 0x00, 0x02, 0x00, 0x00, 0x00,
  0x01, 0x00, 0x00, 0x00, 0x04, 0x00, 0x00, 0x00, 0x9e, 0xfc, 0xff, 0xff,
  0x00, 0x00, 0x00, 0x01, 0x14, 0x00, 0x00, 0x00, 0x1c, 0x00, 0x00, 0x00,
  0x1c, 0x00, 0x00, 0x00, 0x0a, 0x00, 0x00, 0x00, 0x58, 0x00, 0x00, 0x00,
  0x02, 0x00, 0x00, 0x00, 0xff, 0xff, 0xff, 0xff, 0x04, 0x00, 0x00, 0x00,
  0x88, 0xfc, 0xff, 0xff, 0x3c, 0x00, 0x00, 0x00, 0x73, 0x65, 0x71, 0x75,
  0x65, 0x6e, 0x74, 0x69, 0x61, 0x6c, 0x5f, 0x31, 0x2f, 0x64, 0x65, 0x6e,
  0x73, 0x65, 0x5f, 0x32, 0x5f, 0x31, 0x2f, 0x4d, 0x61, 0x74, 0x4d, 0x75,
  0x6c, 0x3b, 0x73, 0x65, 0x71, 0x75, 0x65, 0x6e, 0x74, 0x69, 0x61, 0x6c,
  0x5f, 0x31, 0x2f, 0x64, 0x65, 0x6e, 0x73, 0x65, 0x5f, 0x32, 0x5f, 0x31,
  0x2f, 0x42, 0x69, 0x61, 0x73, 0x41, 0x64, 0x64, 0x00, 0x00, 0x00, 0x00,
  0x02, 0x00, 0x00, 0x00, 0x01, 0x00, 0x00, 0x00, 0x04, 0x00, 0x00, 0x00,
  0x1a, 0xfd, 0xff, 0xff, 0x00, 0x00, 0x00, 0x01, 0x14, 0x00, 0x00, 0x00,
  0x1c, 0x00, 0x00, 0x00, 0x1c, 0x00, 0x00, 0x00, 0x09, 0x00, 0x00, 0x00,
  0x74, 0x00, 0x00, 0x00, 0x02, 0x00, 0x00, 0x00, 0xff, 0xff, 0xff, 0xff,
  0x0f, 0x00, 0x00, 0x00, 0x04, 0xfd, 0xff, 0xff, 0x58, 0x00, 0x00, 0x00,
  0x73, 0x65, 0x71, 0x75, 0x65, 0x6e, 0x74, 0x69, 0x61, 0x6c, 0x5f, 0x31,
  0x2f, 0x64, 0x65, 0x6e, 0x73, 0x65, 0x5f, 0x31, 0x5f, 0x32, 0x2f, 0x4d,
  0x61, 0x74, 0x4d, 0x75, 0x6c, 0x3b, 0x73, 0x65, 0x71, 0x75, 0x65, 0x6e,
  0x74, 0x69, 0x61, 0x6c, 0x5f, 0x31, 0x2f, 0x64, 0x65, 0x6e, 0x73, 0x65,
  0x5f, 0x31, 0x5f, 0x32, 0x2f, 0x52, 0x65, 0x6c, 0x75, 0x3b, 0x73, 0x65,
  0x71, 0x75, 0x65, 0x6e, 0x74, 0x69, 0x61, 0x6c, 0x5f, 0x31, 0x2f, 0x64,
  0x65, 0x6e, 0x73, 0x65, 0x5f, 0x31, 0x5f, 0x32, 0x2f, 0x42, 0x69, 0x61,
  0x73, 0x41, 0x64, 0x64, 0x00, 0x00, 0x00, 0x00, 0x02, 0x00, 0x00, 0x00,
  0x01, 0x00, 0x00, 0x00, 0x0f, 0x00, 0x00, 0x00, 0xb2, 0xfd, 0xff, 0xff,
  0x00, 0x00, 0x00, 0x01, 0x14, 0x00, 0x00, 0x00, 0x1c, 0x00, 0x00, 0x00,
  0x1c, 0x00, 0x00, 0x00, 0x08, 0x00, 0x00, 0x00, 0x6c, 0x00, 0x00, 0x00,
  0x02, 0x00, 0x00, 0x00, 0xff, 0xff, 0xff, 0xff, 0x20, 0x00, 0x00, 0x00,
  0x9c, 0xfd, 0xff, 0xff, 0x52, 0x00, 0x00, 0x00, 0x73, 0x65, 0x71, 0x75,
  0x65, 0x6e, 0x74, 0x69, 0x61, 0x6c, 0x5f, 0x31, 0x2f, 0x64, 0x65, 0x6e,
  0x73, 0x65, 0x5f, 0x31, 0x2f, 0x4d, 0x61, 0x74, 0x4d, 0x75, 0x6c, 0x3b,
  0x73, 0x65, 0x71, 0x75, 0x65, 0x6e, 0x74, 0x69, 0x61, 0x6c, 0x5f, 0x31,
  0x2f, 0x64, 0x65, 0x6e, 0x73, 0x65, 0x5f, 0x31, 0x2f, 0x52, 0x65, 0x6c,
  0x75, 0x3b, 0x73, 0x65, 0x71, 0x75, 0x65, 0x6e, 0x74, 0x69, 0x61, 0x6c,
  0x5f, 0x31, 0x2f, 0x64, 0x65, 0x6e, 0x73, 0x65, 0x5f, 0x31, 0x2f, 0x42,
  0x69, 0x61, 0x73, 0x41, 0x64, 0x64, 0x00, 0x00, 0x02, 0x00, 0x00, 0x00,
  0x01, 0x00, 0x00, 0x00, 0x20, 0x00, 0x00, 0x00, 0x96, 0xfe, 0xff, 0xff,
  0x00, 0x00, 0x00, 0x01, 0x10, 0x00, 0x00, 0x00, 0x10, 0x00, 0x00, 0x00,
  0x07, 0x00, 0x00, 0x00, 0x28, 0x00, 0x00, 0x00, 0x1c, 0xfe, 0xff, 0xff,
  0x1b, 0x00, 0x00, 0x00, 0x73, 0x65, 0x71, 0x75, 0x65, 0x6e, 0x74, 0x69,
  0x61, 0x6c, 0x5f, 0x31, 0x2f, 0x64, 0x65, 0x6e, 0x73, 0x65, 0x5f, 0x31,
  0x2f, 0x4d, 0x61, 0x74, 0x4d, 0x75, 0x6c, 0x00, 0x02, 0x00, 0x00, 0x00,
  0x20, 0x00, 0x00, 0x00, 0x2a, 0x00, 0x00, 0x00, 0xde, 0xfe, 0xff, 0xff,
  0x00, 0x00, 0x00, 0x01, 0x10, 0x00, 0x00, 0x00, 0x10, 0x00, 0x00, 0x00,
  0x06, 0x00, 0x00, 0x00, 0x38, 0x00, 0x00, 0x00, 0x64, 0xfe, 0xff, 0xff,
  0x2b, 0x00, 0x00, 0x00, 0x73, 0x65, 0x71, 0x75, 0x65, 0x6e, 0x74, 0x69,
  0x61, 0x6c, 0x5f, 0x31, 0x2f, 0x64, 0x65, 0x6e, 0x73, 0x65, 0x5f, 0x31,
  0x2f, 0x42, 0x69, 0x61, 0x73, 0x41, 0x64, 0x64, 0x2f, 0x52, 0x65, 0x61,
  0x64, 0x56, 0x61, 0x72, 0x69, 0x61, 0x62, 0x6c, 0x65, 0x4f, 0x70, 0x00,
  0x01, 0x00, 0x00, 0x00, 0x20, 0x00, 0x00, 0x00, 0x32, 0xff, 0xff, 0xff,
  0x00, 0x00, 0x00, 0x01, 0x10, 0x00, 0x00, 0x00, 0x10, 0x00, 0x00, 0x00,
  0x05, 0x00, 0x00, 0x00, 0x3c, 0x00, 0x00, 0x00, 0xb8, 0xfe, 0xff, 0xff,
  0x2d, 0x00, 0x00, 0x00, 0x73, 0x65, 0x71, 0x75, 0x65, 0x6e, 0x74, 0x69,
  0x61, 0x6c, 0x5f, 0x31, 0x2f, 0x64, 0x65, 0x6e, 0x73, 0x65, 0x5f, 0x31,
  0x5f, 0x32, 0x2f, 0x42, 0x69, 0x61, 0x73, 0x41, 0x64, 0x64, 0x2f, 0x52,
  0x65, 0x61, 0x64, 0x56, 0x61, 0x72, 0x69, 0x61, 0x62, 0x6c, 0x65, 0x4f,
  0x70, 0x00, 0x00, 0x00, 0x01, 0x00, 0x00, 0x00, 0x0f, 0x00, 0x00, 0x00,
  0x8a, 0xff, 0xff, 0xff, 0x00, 0x00, 0x00, 0x01, 0x10, 0x00, 0x00, 0x00,
  0x10, 0x00, 0x00, 0x00, 0x04, 0x00, 0x00, 0x00, 0x1c, 0x00, 0x00, 0x00,
  0x10, 0xff, 0xff, 0xff, 0x0f, 0x00, 0x00, 0x00, 0x61, 0x72, 0x69, 0x74,
  0x68, 0x2e, 0x63, 0x6f, 0x6e, 0x73, 0x74, 0x61, 0x6e, 0x74, 0x32, 0x00,
  0x01, 0x00, 0x00, 0x00, 0x04, 0x00, 0x00, 0x00, 0xc2, 0xff, 0xff, 0xff,
  0x00, 0x00, 0x00, 0x01, 0x10, 0x00, 0x00, 0x00, 0x10, 0x00, 0x00, 0x00,
  0x03, 0x00, 0x00, 0x00, 0x1c, 0x00, 0x00, 0x00, 0x48, 0xff, 0xff, 0xff,
  0x0f, 0x00, 0x00, 0x00, 0x61, 0x72, 0x69, 0x74, 0x68, 0x2e, 0x63, 0x6f,
  0x6e, 0x73, 0x74, 0x61, 0x6e, 0x74, 0x31, 0x00, 0x02, 0x00, 0x00, 0x00,
  0x0f, 0x00, 0x00, 0x00, 0x20, 0x00, 0x00, 0x00, 0x00, 0x00, 0x16, 0x00,
  0x18, 0x00, 0x14, 0x00, 0x00, 0x00, 0x10, 0x00, 0x0c, 0x00, 0x08, 0x00,
  0x00, 0x00, 0x00, 0x00, 0x00, 0x00, 0x07, 0x00, 0x16, 0x00, 0x00, 0x00,
  0x00, 0x00, 0x00, 0x01, 0x10, 0x00, 0x00, 0x00, 0x10, 0x00, 0x00, 0x00,
  0x02, 0x00, 0x00, 0x00, 0x1c, 0x00, 0x00, 0x00, 0x9c, 0xff, 0xff, 0xff,
  0x0e, 0x00, 0x00, 0x00, 0x61, 0x72, 0x69, 0x74, 0x68, 0x2e, 0x63, 0x6f,
  0x6e, 0x73, 0x74, 0x61, 0x6e, 0x74, 0x00, 0x00, 0x02, 0x00, 0x00, 0x00,
  0x04, 0x00, 0x00, 0x00, 0x0f, 0x00, 0x00, 0x00, 0x00, 0x00, 0x16, 0x00,
  0x1c, 0x00, 0x18, 0x00, 0x00, 0x00, 0x14, 0x00, 0x10, 0x00, 0x0c, 0x00,
  0x00, 0x00, 0x00, 0x00, 0x08, 0x00, 0x07, 0x00, 0x16, 0x00, 0x00, 0x00,
  0x00, 0x00, 0x00, 0x01, 0x14, 0x00, 0x00, 0x00, 0x20, 0x00, 0x00, 0x00,
  0x20, 0x00, 0x00, 0x00, 0x01, 0x00, 0x00, 0x00, 0x3c, 0x00, 0x00, 0x00,
  0x02, 0x00, 0x00, 0x00, 0xff, 0xff, 0xff, 0xff, 0x2a, 0x00, 0x00, 0x00,
  0x04, 0x00, 0x04, 0x00, 0x04, 0x00, 0x00, 0x00, 0x1e, 0x00, 0x00, 0x00,
  0x73, 0x65, 0x72, 0x76, 0x69, 0x6e, 0x67, 0x5f, 0x64, 0x65, 0x66, 0x61,
  0x75, 0x6c, 0x74, 0x5f, 0x6b, 0x65, 0x72, 0x61, 0x73, 0x5f, 0x74, 0x65,
  0x6e, 0x73, 0x6f, 0x72, 0x3a, 0x30, 0x00, 0x00, 0x02, 0x00, 0x00, 0x00,
  0x01, 0x00, 0x00, 0x00, 0x2a, 0x00, 0x00, 0x00, 0x02, 0x00, 0x00, 0x00,
  0x20, 0x00, 0x00, 0x00, 0x04, 0x00, 0x00, 0x00, 0xf4, 0xff, 0xff, 0xff,
  0x19, 0x00, 0x00, 0x00, 0x00, 0x00, 0x00, 0x19, 0x0c, 0x00, 0x0c, 0x00,
  0x0b, 0x00, 0x00, 0x00, 0x00, 0x00, 0x04, 0x00, 0x0c, 0x00, 0x00, 0x00,
  0x09, 0x00, 0x00, 0x00, 0x00, 0x00, 0x00, 0x09
};
