const unsigned char model[] = {
  0x1c, 0x00, 0x00, 0x00, 0x54, 0x46, 0x4c, 0x33, 0x14, 0x00, 0x20, 0x00,
  0x1c, 0x00, 0x18, 0x00, 0x14, 0x00, 0x10, 0x00, 0x0c, 0x00, 0x00, 0x00,
  0x08, 0x00, 0x04, 0x00, 0x14, 0x00, 0x00, 0x00, 0x1c, 0x00, 0x00, 0x00,
  0x98, 0x00, 0x00, 0x00, 0xf0, 0x00, 0x00, 0x00, 0x4c, 0x20, 0x00, 0x00,
  0x5c, 0x20, 0x00, 0x00, 0x3c, 0x26, 0x00, 0x00, 0x03, 0x00, 0x00, 0x00,
  0x01, 0x00, 0x00, 0x00, 0x10, 0x00, 0x00, 0x00, 0x00, 0x00, 0x0a, 0x00,
  0x10, 0x00, 0x0c, 0x00, 0x08, 0x00, 0x04, 0x00, 0x0a, 0x00, 0x00, 0x00,
  0x0c, 0x00, 0x00, 0x00, 0x1c, 0x00, 0x00, 0x00, 0x3c, 0x00, 0x00, 0x00,
  0x0f, 0x00, 0x00, 0x00, 0x73, 0x65, 0x72, 0x76, 0x69, 0x6e, 0x67, 0x5f,
  0x64, 0x65, 0x66, 0x61, 0x75, 0x6c, 0x74, 0x00, 0x01, 0x00, 0x00, 0x00,
  0x04, 0x00, 0x00, 0x00, 0x90, 0xff, 0xff, 0xff, 0x0a, 0x00, 0x00, 0x00,
  0x04, 0x00, 0x00, 0x00, 0x08, 0x00, 0x00, 0x00, 0x6f, 0x75, 0x74, 0x70,
  0x75, 0x74, 0x5f, 0x30, 0x00, 0x00, 0x00, 0x00, 0x01, 0x00, 0x00, 0x00,
  0x04, 0x00, 0x00, 0x00, 0x9a, 0xdf, 0xff, 0xff, 0x04, 0x00, 0x00, 0x00,
  0x0f, 0x00, 0x00, 0x00, 0x6b, 0x65, 0x72, 0x61, 0x73, 0x5f, 0x74, 0x65,
  0x6e, 0x73, 0x6f, 0x72, 0x5f, 0x35, 0x33, 0x00, 0x02, 0x00, 0x00, 0x00,
  0x34, 0x00, 0x00, 0x00, 0x04, 0x00, 0x00, 0x00, 0xdc, 0xff, 0xff, 0xff,
  0x0d, 0x00, 0x00, 0x00, 0x04, 0x00, 0x00, 0x00, 0x13, 0x00, 0x00, 0x00,
  0x43, 0x4f, 0x4e, 0x56, 0x45, 0x52, 0x53, 0x49, 0x4f, 0x4e, 0x5f, 0x4d,
  0x45, 0x54, 0x41, 0x44, 0x41, 0x54, 0x41, 0x00, 0x08, 0x00, 0x0c, 0x00,
  0x08, 0x00, 0x04, 0x00, 0x08, 0x00, 0x00, 0x00, 0x0c, 0x00, 0x00, 0x00,
  0x04, 0x00, 0x00, 0x00, 0x13, 0x00, 0x00, 0x00, 0x6d, 0x69, 0x6e, 0x5f,
  0x72, 0x75, 0x6e, 0x74, 0x69, 0x6d, 0x65, 0x5f, 0x76, 0x65, 0x72, 0x73,
  0x69, 0x6f, 0x6e, 0x00, 0x0e, 0x00, 0x00, 0x00, 0x58, 0x1f, 0x00, 0x00,
  0x50, 0x1f, 0x00, 0x00, 0x50, 0x1e, 0x00, 0x00, 0xc0, 0x16, 0x00, 0x00,
  0xa0, 0x16, 0x00, 0x00, 0x54, 0x16, 0x00, 0x00, 0xc4, 0x15, 0x00, 0x00,
  0xb4, 0x00, 0x00, 0x00, 0xac, 0x00, 0x00, 0x00, 0xa4, 0x00, 0x00, 0x00,
  0x9c, 0x00, 0x00, 0x00, 0x94, 0x00, 0x00, 0x00, 0x74, 0x00, 0x00, 0x00,
  0x04, 0x00, 0x00, 0x00, 0x4e, 0xe0, 0xff, 0xff, 0x04, 0x00, 0x00, 0x00,
  0x60, 0x00, 0x00, 0x00, 0x10, 0x00, 0x00, 0x00, 0x00, 0x00, 0x00, 0x00,
  0x08, 0x00, 0x0e, 0x00, 0x08, 0x00, 0x04, 0x00, 0x08, 0x00, 0x00, 0x00,
  0x10, 0x00, 0x00, 0x00, 0x24, 0x00, 0x00, 0x00, 0x00, 0x00, 0x06, 0x00,
  0x08, 0x00, 0x04, 0x00, 0x06, 0x00, 0x00, 0x00, 0x04, 0x00, 0x00, 0x00,
  0x00, 0x00, 0x00, 0x00, 0x0c, 0x00, 0x18, 0x00, 0x14, 0x00, 0x10, 0x00,
  0x0c, 0x00, 0x04, 0x00, 0x0c, 0x00, 0x00, 0x00, 0x80, 0x3d, 0x92, 0xdd,
  0x74, 0x5a, 0x4f, 0x17, 0x02, 0x00, 0x00, 0x00, 0x02, 0x00, 0x00, 0x00,
  0x04, 0x00, 0x00, 0x00, 0x06, 0x00, 0x00, 0x00, 0x32, 0x2e, 0x31, 0x39,
  0x2e, 0x30, 0x00, 0x00, 0xba, 0xe0, 0xff, 0xff, 0x04, 0x00, 0x00, 0x00,
  0x10, 0x00, 0x00, 0x00, 0x31, 0x2e, 0x35, 0x2e, 0x30, 0x00, 0x00, 0x00,
  0x00, 0x00, 0x00, 0x00, 0x00, 0x00, 0x00, 0x00, 0xa8, 0xdb, 0xff, 0xff,
  0xac, 0xdb, 0xff, 0xff, 0xb0, 0xdb, 0xff, 0xff, 0xb4, 0xdb, 0xff, 0xff,
  0xe6, 0xe0, 0xff, 0xff, 0x04, 0x00, 0x00, 0x00, 0x00, 0x15, 0x00, 0x00,
  0x36, 0x81, 0x6b, 0x3e, 0x89, 0x20, 0x89, 0x3f, 0xdf, 0x72, 0xc1, 0x3d,
  0x34, 0xf9, 0xf9, 0xbd, 0xec, 0xf5, 0xb7, 0x3e, 0x2a, 0x7c, 0xfe, 0xbd,
  0xc4, 0xff, 0x9c, 0xbd, 0x16, 0x71, 0x42, 0x3e, 0xe2, 0xa9, 0x45, 0x3f,
  0xb4, 0xd4, 0x85, 0x3b, 0x60, 0xf4, 0xcb, 0xbe, 0x89, 0xaa, 0xe9, 0x3d,
  0x43, 0x31, 0xdc, 0xbe, 0x72, 0x5c, 0xfe, 0xbe, 0xd0, 0x6a, 0x9d, 0x3e,
  0xf9, 0x16, 0xfe, 0xbd, 0x34, 0xb5, 0x69, 0x3c, 0x8e, 0xc7, 0xa9, 0x3e,
  0xd8, 0xdb, 0x18, 0xbe, 0x98, 0x02, 0x27, 0x3e, 0xe0, 0x4f, 0x8b, 0x3e,
  0x89, 0x68, 0x70, 0x3e, 0x71, 0x28, 0xb6, 0x3f, 0xb6, 0x17, 0x5d, 0x3d,
  0xfd, 0x72, 0x59, 0xbe, 0x3d, 0x07, 0xee, 0xbb, 0x19, 0x86, 0x65, 0x3e,
  0x73, 0x28, 0xb8, 0x3e, 0x35, 0xcb, 0xb2, 0x3e, 0xd7, 0x77, 0x44, 0x3e,
  0xbd, 0x86, 0x7f, 0x3e, 0x67, 0xa0, 0x14, 0xbe, 0x19, 0x71, 0x3d, 0x3e,
  0xf4, 0x25, 0x57, 0x3c, 0xdd, 0x99, 0xfc, 0xbd, 0x6d, 0x93, 0x0c, 0x3e,
  0xc9, 0xd5, 0x97, 0x3f, 0x43, 0xe9, 0xb6, 0x3e, 0x01, 0xd7, 0x92, 0xbd,
  0xa7, 0xa3, 0x44, 0x3e, 0x25, 0x3e, 0xa4, 0x3e, 0xf4, 0xda, 0xa4, 0x3e,
  0x09, 0x9b, 0x8e, 0x3e, 0x0f, 0x22, 0x28, 0xbf, 0x3e, 0x0a, 0x95, 0x3e,
  0xda, 0x34, 0x08, 0x3f, 0xfa, 0x04, 0x1a, 0x3c, 0x1d, 0x04, 0x9f, 0xbe,
  0xb5, 0x9b, 0x34, 0x3e, 0xcf, 0x10, 0xd9, 0xbd, 0x55, 0xf0, 0xe4, 0xbe,
  0x97, 0xff, 0x96, 0xbe, 0x48, 0x00, 0xd3, 0x3e, 0x6c, 0x88, 0x61, 0xbe,
  0x4e, 0xc8, 0x23, 0xbf, 0x4a, 0x44, 0x10, 0xbe, 0xda, 0x57, 0x68, 0x3e,
  0x54, 0x8c, 0x47, 0x3d, 0x75, 0x05, 0x9f, 0x3e, 0xef, 0x2d, 0xd8, 0x3e,
  0xe4, 0x31, 0x3b, 0x3e, 0x81, 0x91, 0x3b, 0x3e, 0xeb, 0xf9, 0x1c, 0x3e,
  0x77, 0x27, 0xa7, 0x3e, 0xa6, 0x5c, 0xea, 0xbd, 0xa6, 0xf6, 0x52, 0xbe,
  0x17, 0xb2, 0x82, 0xbc, 0xb6, 0x73, 0x08, 0xbe, 0xa0, 0xae, 0xb4, 0xbc,
  0x09, 0xc3, 0xf2, 0x3d, 0xa8, 0xbf, 0x4d, 0xbe, 0xc1, 0xc5, 0x26, 0x3f,
  0x40, 0xec, 0x73, 0x3e, 0x9b, 0x3d, 0x78, 0xbe, 0xc8, 0xfc, 0x8d, 0x3e,
  0x60, 0x94, 0x1a, 0xbe, 0xfa, 0x03, 0xbf, 0xbc, 0xdc, 0x81, 0x2b, 0x3e,
  0x02, 0xe9, 0x5a, 0x3e, 0x93, 0x94, 0xfc, 0x3d, 0x1d, 0x85, 0x46, 0x3d,
  0x6f, 0xba, 0xa5, 0xbc, 0x09, 0xb7, 0xcc, 0x3e, 0xc9, 0x6d, 0x4c, 0x3e,
  0x8e, 0x12, 0xaa, 0xbd, 0x90, 0x01, 0x31, 0x3e, 0x8c, 0x88, 0xf9, 0x3d,
  0x53, 0x2b, 0x91, 0xbe, 0xd6, 0x21, 0xcc, 0xbd, 0x28, 0x7e, 0x64, 0x3d,
  0xd0, 0xba, 0x28, 0x3d, 0xfe, 0x29, 0x5c, 0xbe, 0xf0, 0x9e, 0x38, 0xbd,
  0x3a, 0x1c, 0x83, 0xbe, 0xea, 0x7f, 0xc6, 0xbd, 0xe0, 0x87, 0x89, 0xbc,
  0xd1, 0x77, 0x75, 0xbe, 0xc0, 0xf4, 0xa7, 0xbd, 0x28, 0xdc, 0x33, 0xbd,
  0x0e, 0x08, 0xdc, 0xbd, 0xb8, 0x50, 0x99, 0x3d, 0x58, 0xd7, 0xa8, 0x3d,
  0xca, 0x6d, 0x69, 0x3e, 0x1c, 0xd6, 0x02, 0x3e, 0x90, 0xb9, 0xfc, 0x3d,
  0x74, 0xaa, 0x03, 0x3e, 0x3a, 0x95, 0x80, 0xbd, 0x00, 0xf0, 0x7f, 0xba,
  0x36, 0x1d, 0xd2, 0xbd, 0x2c, 0xed, 0x50, 0xbe, 0xe8, 0x0f, 0x51, 0xbd,
  0x74, 0x54, 0x91, 0xbe, 0x34, 0xd6, 0xc2, 0x3d, 0x3e, 0x10, 0x63, 0x3e,
  0x00, 0xa6, 0xf8, 0xbc, 0x58, 0xb7, 0x1c, 0xbd, 0xb8, 0x32, 0x3a, 0x3d,
  0x40, 0x15, 0x74, 0xbe, 0x02, 0x78, 0x3c, 0x3e, 0xe6, 0x98, 0xfe, 0xbd,
  0x30, 0x21, 0x05, 0x3d, 0x96, 0x84, 0x3f, 0x3e, 0xbc, 0x33, 0x9b, 0x3d,
  0x46, 0xe2, 0x30, 0xbe, 0xb0, 0x1e, 0x95, 0x3c, 0x7c, 0x7d, 0x32, 0xbe,
  0xd8, 0x61, 0x25, 0x3e, 0x49, 0xe3, 0x9f, 0xbe, 0xba, 0x80, 0xe8, 0x3d,
  0x5e, 0xbf, 0x8e, 0x3e, 0xdb, 0xf5, 0xeb, 0xbd, 0x58, 0x6a, 0xbd, 0xbe,
  0xed, 0x7d, 0xc0, 0xbe, 0x3c, 0x75, 0xa7, 0xbe, 0x98, 0xc6, 0xfd, 0xbe,
  0xad, 0xcb, 0x00, 0xbf, 0xe3, 0x55, 0x7d, 0x3d, 0x12, 0x62, 0x12, 0xbf,
  0x5e, 0x3b, 0x3a, 0xbf, 0x9d, 0xa1, 0x48, 0xbf, 0x37, 0xbf, 0x84, 0x3d,
  0x6b, 0x59, 0xf7, 0xbe, 0x1b, 0xb2, 0xdf, 0x3e, 0xd2, 0x9f, 0xd8, 0x3e,
  0xeb, 0x70, 0xfa, 0xbc, 0x7f, 0x3d, 0xd8, 0xbc, 0x76, 0xd5, 0x21, 0x3d,
  0xe5, 0x7a, 0xca, 0x3e, 0x63, 0xb5, 0x16, 0x3f, 0xc3, 0x89, 0x83, 0xbd,
  0x54, 0xea, 0x51, 0xbe, 0x8a, 0xf9, 0xc2, 0x3e, 0x0e, 0xb7, 0x1b, 0x3d,
  0xbf, 0x45, 0xae, 0xbd, 0xe0, 0x50, 0x73, 0x3e, 0xb9, 0xab, 0xca, 0x3e,
  0xed, 0x13, 0xd1, 0x3e, 0x8f, 0x40, 0x2f, 0x3e, 0xe2, 0x14, 0x96, 0x3e,
  0x26, 0x7b, 0x8a, 0x3e, 0xd4, 0xb6, 0x48, 0x3d, 0x5e, 0xcb, 0x03, 0xbd,
  0x28, 0x9d, 0x50, 0x3f, 0xa3, 0xd5, 0xd0, 0x3e, 0x27, 0x90, 0x85, 0x3e,
  0x6e, 0x06, 0xaf, 0x3e, 0xc4, 0x59, 0xdf, 0x3e, 0x45, 0x8d, 0xa4, 0x3d,
  0xcd, 0xdb, 0xa5, 0x3e, 0xe2, 0xe9, 0xc4, 0xbc, 0xd0, 0x20, 0xfd, 0x3e,
  0x53, 0x28, 0x96, 0x3d, 0xd2, 0xf9, 0x8f, 0x3e, 0xe6, 0x95, 0xc9, 0x3e,
  0xd2, 0x0a, 0xf9, 0x3e, 0xde, 0x4d, 0x0a, 0x3d, 0xbb, 0xb0, 0xab, 0x3e,
  0x62, 0x16, 0xd7, 0x3e, 0x61, 0x2d, 0x6a, 0x3e, 0xa5, 0x03, 0x04, 0x3f,
  0xda, 0x88, 0x32, 0x3f, 0x8d, 0xfc, 0x84, 0x3e, 0xee, 0xf5, 0x98, 0x3b,
  0x5b, 0xe1, 0x80, 0xbe, 0xf2, 0x7d, 0x4f, 0x3e, 0xbd, 0x05, 0xa2, 0xbe,
  0x21, 0xb4, 0xf6, 0x3b, 0x1a, 0xa3, 0x32, 0xbd, 0x26, 0x2a, 0xb6, 0xbe,
  0x4a, 0x96, 0x69, 0x3e, 0x2e, 0x4e, 0xe2, 0xbe, 0x8b, 0xc5, 0x9d, 0x3e,
  0x92, 0xfb, 0x9b, 0x3e, 0x6e, 0x25, 0xca, 0x3d, 0x5d, 0x2b, 0x1a, 0xbe,
  0x43, 0xec, 0x3e, 0x3e, 0xaf, 0xce, 0x5f, 0x3e, 0x35, 0xb9, 0xd8, 0xbe,
  0x56, 0x77, 0x36, 0x3c, 0x08, 0x93, 0xd8, 0x3d, 0xee, 0x0a, 0x87, 0x3e,
  0xfc, 0x3f, 0x7e, 0x3c, 0xa4, 0x92, 0x23, 0xbb, 0xd1, 0xe5, 0x65, 0x3d,
  0x96, 0x90, 0x8c, 0xbe, 0x46, 0xb8, 0x2e, 0x3e, 0xd1, 0x29, 0x4e, 0x3e,
  0xcf, 0xdc, 0x74, 0x3e, 0x64, 0x45, 0x95, 0x3d, 0x53, 0xb4, 0xe2, 0xbd,
  0xac, 0x98, 0x54, 0xbe, 0x9b, 0x2c, 0x41, 0x3f, 0x6f, 0x57, 0x12, 0xbe,
  0x88, 0x4b, 0x17, 0xbf, 0x2c, 0x75, 0xbe, 0x3e, 0x0b, 0xdb, 0xa0, 0xbe,
  0x29, 0x8c, 0x6a, 0xbe, 0xb2, 0xf6, 0xa7, 0x3e, 0xed, 0x9d, 0x22, 0x3f,
  0xd0, 0x8d, 0x56, 0x3e, 0x82, 0x50, 0x18, 0xbf, 0xee, 0x5a, 0x9f, 0x3e,
  0xda, 0xff, 0x35, 0x3e, 0x09, 0x6c, 0xc3, 0x3e, 0x93, 0x72, 0x3d, 0x3e,
  0xb5, 0xb4, 0x52, 0x3e, 0xca, 0xd6, 0x09, 0x3e, 0xff, 0x26, 0xc5, 0xbe,
  0xc3, 0xdb, 0xdb, 0xbb, 0xb8, 0x70, 0x1d, 0xbe, 0xb7, 0xc7, 0x29, 0xbe,
  0xbe, 0xe6, 0x78, 0xbc, 0x0c, 0x4e, 0xa1, 0x3f, 0x96, 0x47, 0x78, 0xbe,
  0x11, 0xf3, 0xc2, 0xbe, 0x27, 0xef, 0xa5, 0x3e, 0x5e, 0x1e, 0x1d, 0xbe,
  0x24, 0xba, 0x43, 0xbe, 0x10, 0x6a, 0x32, 0x3e, 0x7e, 0x21, 0xba, 0xbe,
  0xcb, 0x8e, 0x4b, 0x3e, 0x90, 0x7e, 0x95, 0x3e, 0xff, 0x55, 0x1f, 0xbe,
  0x43, 0x8e, 0x4a, 0x3e, 0x3d, 0x72, 0x92, 0xbd, 0x2a, 0xfe, 0xa0, 0x3e,
  0x2b, 0xda, 0x18, 0x3f, 0xc7, 0x01, 0x35, 0xbe, 0x53, 0x21, 0x61, 0xbd,
  0xe1, 0xbf, 0x8f, 0x3e, 0x97, 0xf0, 0x4d, 0xbe, 0xb2, 0x94, 0x20, 0xbe,
  0xeb, 0xeb, 0x8e, 0xbe, 0x11, 0x75, 0x85, 0x3e, 0x00, 0x00, 0xb3, 0xbc,
  0x16, 0xad, 0x94, 0xbe, 0x82, 0x84, 0x67, 0xbd, 0x44, 0x2c, 0x68, 0xbe,
  0x5e, 0x60, 0x01, 0x3e, 0xd7, 0x93, 0x84, 0x3e, 0x5e, 0x00, 0x79, 0x3e,
  0xff, 0x21, 0x24, 0x3d, 0xeb, 0xf4, 0x58, 0xbe, 0xb3, 0xb5, 0xf5, 0x3d,
  0x0b, 0x1d, 0x4d, 0x3e, 0xfb, 0x17, 0xa0, 0x3d, 0x91, 0xe2, 0x63, 0xbd,
  0x7b, 0x18, 0xdd, 0x3d, 0xf7, 0xcb, 0x2f, 0xbe, 0xa4, 0xa7, 0x38, 0x3d,
  0x6b, 0xf5, 0x5f, 0xbe, 0xaf, 0x21, 0x94, 0xbe, 0x4d, 0x5b, 0x86, 0x3e,
  0x02, 0x02, 0x35, 0x3e, 0xc5, 0xbb, 0x31, 0xbe, 0x2f, 0x39, 0x8a, 0xbe,
  0x0f, 0xfc, 0x6f, 0x3e, 0xf7, 0x05, 0x65, 0x3b, 0xb5, 0xca, 0x53, 0x3e,
  0x48, 0xed, 0xb1, 0xbd, 0xed, 0x62, 0xcc, 0x3d, 0xff, 0x49, 0x22, 0x3e,
  0x0a, 0xc6, 0x36, 0x3e, 0x4f, 0x04, 0x38, 0xbe, 0x3c, 0x6c, 0x51, 0x3e,
  0xa7, 0x33, 0x15, 0x3e, 0x57, 0xdb, 0x2f, 0x3e, 0x46, 0xfa, 0x4f, 0xbe,
  0xd1, 0x71, 0x59, 0xbc, 0x72, 0x20, 0x05, 0x3d, 0xb3, 0xca, 0x60, 0x3e,
  0x90, 0x4d, 0x89, 0xbe, 0xcb, 0x81, 0xf3, 0x3d, 0x1d, 0x07, 0x77, 0xbe,
  0xcd, 0xa1, 0x43, 0xbe, 0x1d, 0x60, 0x15, 0x3e, 0x59, 0xf7, 0xcb, 0x3d,
  0xac, 0x72, 0x10, 0x3e, 0x51, 0xc2, 0x3e, 0xbe, 0x41, 0xdf, 0x72, 0x3d,
  0x95, 0xf1, 0xa7, 0x3d, 0xa1, 0xce, 0x91, 0xbe, 0x2e, 0xd9, 0x2c, 0xbe,
  0x3c, 0xfe, 0x90, 0xbe, 0xfb, 0x29, 0x79, 0x3e, 0x9d, 0xea, 0x92, 0xbe,
  0x82, 0xe7, 0x5f, 0x3e, 0xeb, 0xe2, 0xc9, 0xbc, 0x43, 0x67, 0x11, 0xbd,
  0x49, 0xad, 0x3a, 0xbe, 0x8e, 0xf6, 0xc5, 0xba, 0x6f, 0xc5, 0x6f, 0xbe,
  0xd7, 0x4b, 0xd8, 0xbc, 0x94, 0xfa, 0xb7, 0xbd, 0xaa, 0x00, 0x69, 0x3d,
  0x95, 0x91, 0x0a, 0x3d, 0x93, 0x79, 0x9e, 0x3d, 0xc2, 0x42, 0x36, 0x3e,
  0xf0, 0xa0, 0x43, 0xbe, 0xf4, 0x7e, 0xf7, 0x3d, 0xb0, 0x2c, 0xe4, 0xbb,
  0xef, 0xa5, 0x5d, 0xbb, 0x95, 0x33, 0x84, 0x3e, 0x42, 0x32, 0x96, 0xbe,
  0xd7, 0xf7, 0x95, 0xbe, 0x04, 0xdc, 0xb7, 0x3d, 0x02, 0x0c, 0x07, 0x3e,
  0x3f, 0x8a, 0xe1, 0x3d, 0x26, 0x18, 0x0a, 0x3d, 0xad, 0xa8, 0x3f, 0x3e,
  0x14, 0x9a, 0xc0, 0xbd, 0x3e, 0xaa, 0xfb, 0x3c, 0xf9, 0x5b, 0xf0, 0x3d,
  0x49, 0xb0, 0x69, 0x3e, 0x47, 0x32, 0x18, 0xbe, 0x94, 0x42, 0x06, 0x3c,
  0xe0, 0xb4, 0x39, 0xbc, 0x28, 0x89, 0x20, 0x3d, 0x2e, 0xff, 0x78, 0x3e,
  0x40, 0x07, 0x1c, 0xbc, 0xc6, 0x6f, 0x5c, 0xbe, 0xd9, 0x96, 0x82, 0xbe,
  0xae, 0xdf, 0x46, 0xbe, 0xbe, 0xf3, 0x9c, 0xbd, 0x60, 0xc6, 0x80, 0x3d,
  0x83, 0xea, 0x85, 0x3e, 0xb8, 0x7a, 0xb4, 0x3d, 0x8c, 0x87, 0x49, 0x3e,
  0x1d, 0xb4, 0x0b, 0xbe, 0x90, 0xe9, 0x55, 0x3d, 0x3c, 0x2a, 0x4c, 0xbd,
  0x64, 0xa1, 0x47, 0xbd, 0x7a, 0x8e, 0x84, 0xbe, 0x36, 0xac, 0x59, 0xbe,
  0x5a, 0x0a, 0x69, 0xbe, 0x1c, 0xd9, 0x97, 0xbd, 0x00, 0xf1, 0xe0, 0xba,
  0x34, 0x9e, 0x0e, 0xbe, 0x40, 0x2b, 0x6e, 0x3c, 0x06, 0x20, 0x07, 0x3e,
  0xce, 0xbd, 0x0d, 0x3e, 0xb6, 0x93, 0x74, 0x3e, 0xd1, 0xb8, 0x82, 0x3e,
  0x49, 0xf0, 0x02, 0xbe, 0x76, 0x2d, 0x0b, 0x3e, 0x74, 0x95, 0x87, 0xbe,
  0xc8, 0xed, 0xf0, 0xbd, 0x2d, 0x43, 0x86, 0x3e, 0x32, 0x01, 0x5f, 0x3e,
  0x01, 0x38, 0x83, 0x3e, 0x78, 0xa6, 0x44, 0xbe, 0x84, 0x16, 0x11, 0xbd,
  0xd0, 0x76, 0x87, 0x3c, 0xe2, 0x71, 0x71, 0xbe, 0xb7, 0xa3, 0x8a, 0xbe,
  0xc4, 0x4f, 0x35, 0xbe, 0xa3, 0x4f, 0x81, 0x3e, 0x3c, 0x36, 0xe6, 0x3d,
  0xe3, 0x86, 0x02, 0x3f, 0xa2, 0xfc, 0x6b, 0xbf, 0x8b, 0x49, 0xdf, 0x3e,
  0xea, 0x98, 0x37, 0x3f, 0x26, 0x84, 0x88, 0x3e, 0xad, 0x4c, 0x52, 0x3f,
  0x99, 0x46, 0x10, 0x3f, 0x1b, 0xd9, 0x39, 0x3e, 0x64, 0x64, 0x06, 0xbf,
  0xfa, 0x4e, 0x56, 0xbd, 0xf9, 0x3f, 0x60, 0x3f, 0xbc, 0x67, 0xe7, 0xbd,
  0x42, 0x59, 0x5f, 0x3e, 0xbb, 0xa3, 0xa0, 0x3e, 0x3a, 0xba, 0xa8, 0xbd,
  0x78, 0xba, 0xb0, 0xbe, 0xaa, 0xdf, 0x30, 0xbd, 0xdb, 0x9c, 0x62, 0x3e,
  0x81, 0xf4, 0x27, 0xba, 0x55, 0xce, 0x60, 0xbe, 0x10, 0x48, 0xec, 0x3d,
  0x2f, 0xd8, 0x85, 0x3e, 0x0d, 0x61, 0x82, 0xbf, 0x28, 0xb5, 0x42, 0xbe,
  0xa3, 0x87, 0xa6, 0x3e, 0xb8, 0x78, 0x78, 0xbe, 0xd4, 0x0e, 0xac, 0x3e,
  0xe6, 0xaf, 0xd0, 0xbd, 0xa3, 0xf4, 0x24, 0xbd, 0x03, 0xeb, 0x15, 0xbe,
  0x65, 0xca, 0xb8, 0x3d, 0xe3, 0x84, 0xbf, 0x3e, 0x7d, 0xd7, 0x99, 0x3b,
  0x21, 0xce, 0xbc, 0x3c, 0xc1, 0x13, 0xda, 0xbd, 0x3b, 0x0f, 0x6d, 0xbc,
  0x06, 0x75, 0x3c, 0xbf, 0xdc, 0xbe, 0x5a, 0xbe, 0x2c, 0xc5, 0x07, 0x3e,
  0xb7, 0xb4, 0xc0, 0xbe, 0x77, 0x69, 0x45, 0xbd, 0x9f, 0x3c, 0x13, 0x3c,
  0x5b, 0xef, 0x6e, 0x3c, 0x55, 0x7f, 0x13, 0xbe, 0xf9, 0xe5, 0x19, 0xbe,
  0x60, 0x28, 0xca, 0x3d, 0x0e, 0x07, 0xe3, 0xbe, 0x6b, 0x52, 0x56, 0xbe,
  0xda, 0x57, 0x87, 0xbd, 0x74, 0x01, 0x10, 0xbc, 0x59, 0x83, 0x5d, 0xbf,
  0xb1, 0x40, 0xd3, 0xbd, 0x1b, 0x95, 0xfb, 0x3d, 0x06, 0xf6, 0xc6, 0xbe,
  0xa0, 0xd3, 0x27, 0xbf, 0x19, 0x0d, 0xe8, 0xbd, 0x91, 0xff, 0x45, 0xbd,
  0xa7, 0xd5, 0x28, 0xbe, 0x54, 0x86, 0xab, 0x3e, 0x33, 0x16, 0x12, 0x3f,
  0x8e, 0xc4, 0x56, 0x3e, 0x0d, 0xa8, 0xb1, 0x3e, 0xa6, 0x5b, 0x9d, 0x3e,
  0x1c, 0x69, 0xda, 0xbc, 0xda, 0xa3, 0x70, 0x3e, 0x5a, 0xf2, 0x86, 0x3e,
  0xdb, 0x78, 0x8e, 0x3e, 0x17, 0x15, 0xef, 0x3c, 0x99, 0x3b, 0x81, 0x3e,
  0xfa, 0xa1, 0x4a, 0xbe, 0x20, 0x75, 0x05, 0x3e, 0x60, 0x00, 0x15, 0x3f,
  0xa8, 0xcb, 0x1c, 0x3e, 0x01, 0x97, 0x30, 0x3e, 0xf8, 0xf2, 0xeb, 0xbd,
  0x7f, 0xd2, 0x81, 0x3e, 0x30, 0x08, 0x86, 0xbe, 0xa1, 0x16, 0x45, 0x3e,
  0x2e, 0x81, 0x19, 0x3e, 0x26, 0x4a, 0x7b, 0x3c, 0x86, 0xcd, 0x14, 0xbe,
  0xd2, 0x39, 0xbe, 0xbd, 0x79, 0x70, 0x0a, 0xbe, 0xed, 0xff, 0x97, 0x3e,
  0x6c, 0x17, 0x81, 0x3d, 0xe8, 0x51, 0x6d, 0x3d, 0xd0, 0x88, 0x1d, 0x3e,
  0x3d, 0x69, 0x68, 0xbe, 0x42, 0x69, 0xdf, 0xbd, 0x80, 0x0d, 0xfc, 0xbd,
  0xf8, 0xca, 0x17, 0x3d, 0x2e, 0x10, 0x80, 0xbd, 0xf8, 0x72, 0xd4, 0xbd,
  0xbc, 0xe4, 0xaa, 0xbd, 0x8a, 0xc2, 0x35, 0x3e, 0x88, 0x49, 0x2b, 0xbe,
  0x4c, 0x80, 0x29, 0x3e, 0xf6, 0x2d, 0x49, 0x3e, 0xd4, 0x20, 0x75, 0xbe,
  0x52, 0x14, 0x2b, 0xbe, 0x2f, 0x68, 0x8d, 0xbe, 0x66, 0x70, 0x6e, 0x3e,
  0xba, 0x2f, 0x7e, 0x3e, 0x20, 0xfc, 0xa9, 0x3d, 0x90, 0xb9, 0x7e, 0x3d,
  0xef, 0x4f, 0x7b, 0xbe, 0xea, 0x17, 0x6a, 0x3e, 0x94, 0x76, 0x79, 0xbd,
  0xf8, 0xc5, 0x73, 0xbe, 0x17, 0xfd, 0x82, 0xbe, 0x34, 0xed, 0xd3, 0xbd,
  0x7c, 0x8b, 0x1b, 0xbe, 0x36, 0x9a, 0x4f, 0x3e, 0x78, 0x75, 0x8f, 0x3d,
  0xb0, 0x68, 0x52, 0xbe, 0xe2, 0xa5, 0x45, 0x3e, 0x2d, 0x1b, 0x19, 0xbe,
  0xf8, 0xd0, 0x2b, 0x3e, 0xaa, 0x4a, 0x01, 0x3e, 0x5a, 0x7e, 0x18, 0x3e,
  0x1a, 0xf9, 0x51, 0x3e, 0x24, 0x2a, 0x91, 0x3d, 0xf0, 0xc8, 0xdc, 0x3d,
  0x50, 0x3b, 0x41, 0x3d, 0x60, 0x31, 0x8a, 0x3d, 0x80, 0x34, 0x9f, 0xbd,
  0x48, 0xec, 0x14, 0x3f, 0x2f, 0x44, 0xa9, 0xbe, 0x7a, 0x2d, 0xe3, 0x3d,
  0xf5, 0xde, 0x38, 0x3f, 0xa3, 0xf4, 0xc4, 0x3e, 0x44, 0x38, 0x47, 0x3f,
  0x64, 0x54, 0x2f, 0x3f, 0x22, 0x8d, 0xfa, 0x3d, 0x59, 0x88, 0x14, 0xbe,
  0xae, 0x2d, 0x88, 0x3e, 0x99, 0x00, 0x4a, 0x3f, 0x4b, 0x0f, 0xe6, 0x3e,
  0x3a, 0xe6, 0x26, 0x3f, 0x2d, 0xaa, 0x51, 0x3f, 0xba, 0xc0, 0x14, 0xbe,
  0x13, 0xb4, 0x53, 0x3e, 0xee, 0x02, 0x1d, 0x3e, 0x6c, 0xbe, 0xab, 0xbe,
  0x9f, 0x19, 0x03, 0xbd, 0xa3, 0x2e, 0xa2, 0xbd, 0x24, 0x61, 0xac, 0xbe,
  0x06, 0x19, 0xea, 0x3d, 0x5e, 0x50, 0x73, 0xbf, 0x07, 0x74, 0x3d, 0xbd,
  0xe8, 0x34, 0x02, 0x3f, 0xb8, 0xd8, 0x83, 0xbd, 0x12, 0x17, 0x23, 0x3c,
  0x01, 0xa5, 0xbf, 0xbb, 0xe4, 0xab, 0x78, 0x3e, 0xac, 0x4b, 0xd2, 0xbe,
  0x48, 0x65, 0xd1, 0xbd, 0xe1, 0x57, 0xae, 0xbd, 0x6b, 0x8d, 0x66, 0x3e,
  0x33, 0x7f, 0x43, 0x3e, 0xcc, 0x3e, 0x64, 0x3e, 0x8e, 0xbe, 0x77, 0x3e,
  0x9f, 0x47, 0x61, 0xbf, 0x62, 0x80, 0x0e, 0xbe, 0xa8, 0xd4, 0x02, 0xbe,
  0xdf, 0x10, 0xb1, 0xbd, 0xeb, 0x0e, 0x05, 0x3d, 0x67, 0x6c, 0x22, 0x3e,
  0x82, 0xcd, 0x11, 0xbe, 0x4c, 0x5f, 0xfc, 0xbd, 0x3f, 0x8d, 0x87, 0x3e,
  0x50, 0x06, 0x33, 0x3d, 0x20, 0x70, 0xf3, 0xbc, 0x30, 0x47, 0xa3, 0xbc,
  0x29, 0x91, 0x8d, 0x3e, 0x72, 0xb8, 0x4e, 0xbe, 0x55, 0x09, 0x81, 0x3e,
  0xf0, 0x62, 0xc6, 0xbd, 0xb0, 0x5c, 0xa5, 0x3d, 0xa8, 0xd3, 0x42, 0xbe,
  0x57, 0x91, 0x83, 0x3e, 0xe0, 0xd0, 0xa7, 0xbd, 0x4a, 0xb1, 0x8c, 0xbe,
  0x1e, 0x50, 0x50, 0xbe, 0x30, 0x04, 0xba, 0x3d, 0xe0, 0x30, 0x7f, 0xbd,
  0xdc, 0x4e, 0xd2, 0xbd, 0xa2, 0x43, 0x5b, 0xbe, 0xbb, 0x53, 0x22, 0xbe,
  0x78, 0xca, 0x4d, 0xbe, 0x2c, 0xc8, 0xfd, 0x3d, 0xcd, 0x0f, 0x3e, 0xbe,
  0x7c, 0xb8, 0xfa, 0xbd, 0x26, 0xa4, 0x6c, 0x3e, 0x49, 0x86, 0x27, 0xbe,
  0x1a, 0x95, 0x26, 0xbe, 0xcb, 0x40, 0x81, 0x3e, 0xd5, 0x76, 0x87, 0xbe,
  0xc9, 0x6e, 0x06, 0xbe, 0x5c, 0x54, 0x81, 0x3d, 0xe0, 0x83, 0xa4, 0x3c,
  0x40, 0x05, 0x44, 0x3e, 0xfe, 0x58, 0x14, 0xbe, 0xd8, 0x60, 0x16, 0x3d,
  0x92, 0x64, 0x75, 0x3e, 0x46, 0x33, 0x00, 0xbe, 0x26, 0x59, 0x74, 0xbe,
  0x38, 0x1f, 0x3f, 0x3e, 0xc6, 0x7b, 0x1c, 0x3e, 0xe6, 0xd0, 0x2c, 0xbe,
  0xc0, 0x97, 0xde, 0x3b, 0x62, 0x02, 0x6f, 0x3e, 0xc2, 0x9f, 0x3b, 0xbe,
  0x7c, 0x97, 0x64, 0xbe, 0x70, 0x96, 0xa9, 0xbd, 0x5a, 0x99, 0x09, 0xbe,
  0x07, 0x59, 0x8b, 0xbe, 0xd6, 0x61, 0x7b, 0xbe, 0x9e, 0xd7, 0x6c, 0x3e,
  0x00, 0xc7, 0x1d, 0xbb, 0x1c, 0x80, 0x6c, 0xbe, 0x22, 0xf8, 0x40, 0x3e,
  0xc0, 0x96, 0xe7, 0xbb, 0xd0, 0x68, 0xd2, 0x3d, 0xb2, 0xdf, 0x46, 0xbe,
  0x12, 0x7c, 0x46, 0xbe, 0x21, 0x9f, 0x46, 0xbe, 0x80, 0x22, 0xce, 0x3c,
  0xcc, 0x3c, 0x93, 0x3d, 0x82, 0x0c, 0x2b, 0xbe, 0x92, 0x06, 0x3f, 0x3e,
  0x40, 0xb2, 0x9c, 0xbd, 0xd0, 0x2d, 0x28, 0xbd, 0xc0, 0xcd, 0xea, 0x3d,
  0xea, 0x98, 0x58, 0x3e, 0xf0, 0xbe, 0xba, 0x3c, 0x34, 0xdc, 0x3f, 0xbe,
  0x20, 0xe9, 0x21, 0x3d, 0xf0, 0xb4, 0xca, 0x3c, 0xec, 0xcb, 0x5c, 0xbd,
  0xe1, 0x9d, 0x87, 0x3e, 0x8f, 0xc7, 0x1d, 0xbe, 0x0e, 0xed, 0x93, 0xbd,
  0x9f, 0x98, 0x09, 0xbe, 0x80, 0x56, 0xa1, 0x3d, 0x00, 0x24, 0xe4, 0x3d,
  0x22, 0x8c, 0xeb, 0xbd, 0xcc, 0xc8, 0x44, 0xbe, 0x7c, 0x3c, 0xf6, 0xbd,
  0x2c, 0xf2, 0x9d, 0x3d, 0x9a, 0x23, 0xee, 0xbd, 0x72, 0x46, 0xdf, 0xbd,
  0xb4, 0x05, 0x20, 0x3e, 0xcf, 0x80, 0x5d, 0xbe, 0x54, 0x5f, 0xa7, 0x3d,
  0x0c, 0x25, 0x59, 0xbe, 0x80, 0x8c, 0xf3, 0xbd, 0x6e, 0x57, 0x6d, 0x3e,
  0xf8, 0xb3, 0xa1, 0xbd, 0x64, 0xc0, 0x1e, 0x3e, 0x48, 0x3a, 0x14, 0x3d,
  0x60, 0x44, 0xa4, 0x3c, 0x4c, 0x01, 0xed, 0xbd, 0xd8, 0x69, 0x04, 0xbe,
  0xe6, 0x8f, 0x1b, 0xbe, 0xda, 0xca, 0x2c, 0xbe, 0xd1, 0xd3, 0x85, 0x3e,
  0xd8, 0xe4, 0x25, 0xbe, 0x1c, 0x3c, 0x11, 0xbd, 0x3c, 0x10, 0x07, 0xbe,
  0x2b, 0xa1, 0x8b, 0x3e, 0xfe, 0xd0, 0x30, 0x3e, 0xe8, 0x89, 0x12, 0xbd,
  0x31, 0x98, 0x4d, 0xbe, 0xcb, 0x1c, 0x76, 0xbe, 0x04, 0xb6, 0xd7, 0x3d,
  0x98, 0xde, 0x73, 0x3d, 0xb1, 0xb0, 0x8f, 0xbe, 0xdc, 0x14, 0xf4, 0xbd,
  0x20, 0x03, 0x1f, 0xbd, 0xc4, 0x51, 0x62, 0xbe, 0x21, 0xdb, 0x8d, 0x3e,
  0xcf, 0xce, 0x8d, 0x3e, 0xbe, 0x3e, 0xf5, 0xbd, 0x5c, 0x96, 0x90, 0xbe,
  0xba, 0x22, 0x52, 0x3e, 0x64, 0xb7, 0x3e, 0xbe, 0x84, 0x98, 0x51, 0xbd,
  0xc7, 0x58, 0x84, 0x3e, 0x8e, 0x3f, 0x60, 0x3e, 0xbc, 0x54, 0x9d, 0xbd,
  0x3c, 0x19, 0x6d, 0xbe, 0xea, 0xe5, 0x7c, 0x3e, 0x8f, 0xcc, 0x90, 0xbe,
  0xe7, 0xae, 0xa9, 0x3e, 0x0f, 0xe8, 0x94, 0x3d, 0xd7, 0x79, 0x1e, 0x3e,
  0xce, 0xab, 0xd4, 0x3e, 0x83, 0xd9, 0x07, 0x3f, 0xb1, 0x0a, 0xef, 0x3e,
  0xc7, 0x4c, 0x41, 0x3e, 0x75, 0xd3, 0x0b, 0x3f, 0x93, 0x10, 0x2f, 0x3f,
  0x40, 0x82, 0x0e, 0x3f, 0x73, 0xd9, 0x26, 0xbc, 0x19, 0xc7, 0x2b, 0x3f,
  0x1b, 0x5c, 0xf6, 0x3e, 0xe6, 0x97, 0x28, 0x3f, 0xc0, 0xc7, 0xa0, 0xbe,
  0xea, 0x18, 0xa6, 0x3e, 0x28, 0x1c, 0xb6, 0xbe, 0xd4, 0xa1, 0xf1, 0xbe,
  0x4d, 0x13, 0x70, 0x3e, 0xa0, 0x3d, 0x89, 0xbd, 0xb2, 0x0f, 0xa0, 0xbd,
  0x76, 0xe0, 0xc3, 0xbd, 0x5d, 0xb2, 0x16, 0xbf, 0xe9, 0xce, 0x06, 0x3e,
  0x75, 0x02, 0x9c, 0x3e, 0xeb, 0x03, 0x0c, 0xbe, 0x8e, 0x4c, 0x0b, 0x3d,
  0xb4, 0x50, 0x3c, 0x3e, 0x3c, 0x96, 0x67, 0xbd, 0x8a, 0xff, 0x93, 0xbe,
  0x8d, 0x96, 0x76, 0xbe, 0x48, 0xc8, 0xc3, 0xbc, 0x38, 0x65, 0x91, 0x3b,
  0xd8, 0x53, 0x28, 0xbe, 0x9a, 0x05, 0x70, 0x3d, 0x3a, 0x8d, 0x93, 0xbe,
  0x6b, 0xb8, 0xde, 0xbe, 0x27, 0x29, 0x41, 0xbe, 0x73, 0x0c, 0xae, 0xbc,
  0xd0, 0x08, 0x75, 0xbe, 0x2b, 0x9f, 0xca, 0xbd, 0x26, 0x91, 0xfd, 0xbd,
  0xa5, 0xf0, 0xb1, 0x3e, 0xc5, 0xd1, 0x62, 0xbf, 0xef, 0x5b, 0x83, 0x3e,
  0xf7, 0x0f, 0x56, 0x3f, 0xb8, 0x8c, 0xb1, 0xbe, 0x6f, 0x14, 0xee, 0x3e,
  0x62, 0xac, 0x5b, 0x3e, 0xe9, 0xad, 0x1c, 0xbd, 0xf0, 0x82, 0x93, 0xbf,
  0x44, 0x6d, 0x79, 0x3e, 0xf3, 0x7c, 0x00, 0x3f, 0xa1, 0x8b, 0x55, 0xbe,
  0x8e, 0x86, 0x5a, 0x3c, 0x91, 0xe7, 0xf2, 0x3e, 0x5f, 0xb4, 0x42, 0xbb,
  0xef, 0x98, 0x9d, 0x3d, 0xb6, 0xd4, 0xe3, 0xbc, 0x10, 0xac, 0xb9, 0x3d,
  0x78, 0x7e, 0x0b, 0xbe, 0xec, 0x69, 0x1f, 0xbe, 0xa1, 0x86, 0x8e, 0x3e,
  0x2c, 0x33, 0x7b, 0x3e, 0x96, 0x24, 0x81, 0xbf, 0x87, 0xc1, 0x32, 0xbd,
  0xda, 0x4c, 0xdb, 0x3e, 0xd9, 0x73, 0xfa, 0x3d, 0xa0, 0x7e, 0x6d, 0xbe,
  0xc8, 0xe9, 0x42, 0xbe, 0x3d, 0xb8, 0x03, 0x3e, 0x67, 0x09, 0x46, 0xbe,
  0x52, 0xd4, 0x88, 0x3e, 0x39, 0x1d, 0x67, 0x3e, 0x9b, 0x4c, 0x40, 0xbe,
  0xaa, 0x98, 0xa7, 0x3d, 0x31, 0x5e, 0x96, 0x3d, 0x9d, 0x4e, 0x72, 0xbe,
  0xa6, 0x5b, 0x9c, 0xbf, 0xbc, 0x0c, 0xab, 0xbb, 0x4b, 0x9c, 0x19, 0x3d,
  0xa3, 0x75, 0xea, 0xbe, 0xcf, 0xd9, 0xab, 0x3c, 0x73, 0xd3, 0xee, 0xbb,
  0xe7, 0x6e, 0x12, 0xbe, 0x49, 0x07, 0x36, 0xbf, 0xf8, 0x7d, 0x90, 0x3e,
  0x12, 0x7a, 0x1a, 0x3f, 0x56, 0x9a, 0x97, 0xbe, 0xa1, 0xe8, 0x74, 0xbe,
  0x19, 0x4c, 0x9f, 0xbe, 0x46, 0x3b, 0x5b, 0xbd, 0xd7, 0x5b, 0x8b, 0xbf,
  0x66, 0x5c, 0x02, 0x3c, 0x4a, 0x50, 0x0b, 0x3f, 0x41, 0xc7, 0xfb, 0xbe,
  0x79, 0x4a, 0xdf, 0xbe, 0x18, 0xa2, 0x3d, 0xbe, 0x2d, 0x7d, 0x8a, 0x3e,
  0xe7, 0x6d, 0x96, 0xbe, 0x88, 0x30, 0x86, 0x3d, 0xd8, 0x38, 0xea, 0x3e,
  0xa6, 0x05, 0xc9, 0x3d, 0xc1, 0x09, 0x0a, 0x3f, 0xa7, 0xc7, 0xe8, 0x3e,
  0xa6, 0x6a, 0x5e, 0x3e, 0xd0, 0x40, 0xd9, 0xbc, 0xf4, 0xd8, 0x79, 0x3e,
  0xe9, 0x26, 0x17, 0xbe, 0xed, 0x71, 0x9d, 0x3e, 0x7c, 0xc8, 0x3e, 0x3e,
  0x53, 0x05, 0x5c, 0x3c, 0x22, 0x49, 0x81, 0xbc, 0x29, 0x60, 0x0d, 0x3f,
  0x9f, 0x56, 0x3f, 0x3e, 0xda, 0x77, 0xc1, 0xbd, 0xec, 0xd7, 0xb3, 0x3e,
  0x28, 0xe6, 0x9c, 0x3e, 0xcd, 0xa8, 0x4e, 0x3e, 0xad, 0x81, 0x2a, 0xbe,
  0x64, 0xc7, 0x9b, 0x3c, 0xb5, 0x86, 0x38, 0xbe, 0xcc, 0x03, 0xe6, 0xbd,
  0xef, 0xa0, 0x27, 0xbe, 0x2c, 0x6d, 0x5b, 0xbd, 0xe8, 0xbb, 0x49, 0xbd,
  0x3a, 0x6f, 0xfb, 0xbc, 0xd5, 0x82, 0x92, 0x3f, 0x44, 0xbf, 0x21, 0x3e,
  0xaf, 0x88, 0x75, 0xbe, 0x95, 0x1b, 0xc8, 0x3d, 0x5c, 0x89, 0xad, 0xbd,
  0x39, 0x1b, 0xd4, 0xbd, 0x98, 0x9c, 0xb3, 0x3d, 0x68, 0x9b, 0x4b, 0x3f,
  0x5a, 0x30, 0x38, 0x3e, 0x08, 0xf9, 0xa0, 0xbe, 0xe8, 0x1a, 0x3e, 0x3e,
  0x4a, 0x04, 0xb0, 0xbd, 0x86, 0x00, 0x67, 0xbe, 0x1e, 0x6f, 0xae, 0x3e,
  0xc9, 0xec, 0x2e, 0xbe, 0xdf, 0x34, 0x93, 0x3e, 0xb6, 0x3a, 0x00, 0x3d,
  0x26, 0xe1, 0xd0, 0xbd, 0x08, 0x60, 0x56, 0x3e, 0x9e, 0x8b, 0x81, 0x3e,
  0x68, 0x2b, 0xba, 0x3d, 0x39, 0x9f, 0xb5, 0x3f, 0x39, 0x00, 0xc5, 0x3e,
  0xb0, 0x35, 0xea, 0xbd, 0xd6, 0xaa, 0x30, 0x3b, 0x01, 0x79, 0x86, 0x3e,
  0xe7, 0x62, 0x48, 0x3e, 0x02, 0xcf, 0xa5, 0x3e, 0x4b, 0x6e, 0xb3, 0x3e,
  0x0f, 0x12, 0x83, 0x3d, 0xcb, 0xcc, 0xa0, 0x3d, 0xa6, 0x3a, 0x44, 0xbb,
  0x67, 0x01, 0x31, 0xbe, 0x3d, 0xee, 0x5b, 0xbe, 0x19, 0x31, 0xfc, 0x3c,
  0x05, 0x77, 0xac, 0x3f, 0x95, 0xee, 0xde, 0x3e, 0xe7, 0x2f, 0x0f, 0xbe,
  0xae, 0xed, 0x08, 0x3e, 0x14, 0xf6, 0xb8, 0x3e, 0x01, 0x66, 0x0d, 0xbd,
  0x76, 0x6f, 0xce, 0x3e, 0xeb, 0xa0, 0xf6, 0x3e, 0x12, 0x8d, 0xd4, 0x3e,
  0xf5, 0x92, 0xc3, 0x3e, 0x56, 0xd1, 0x03, 0x3f, 0xc8, 0x0a, 0x89, 0x3e,
  0xd0, 0xa2, 0xf5, 0x3e, 0x14, 0xd9, 0xc5, 0x3c, 0x03, 0x51, 0x13, 0x3f,
  0x0f, 0x4b, 0xe0, 0x3e, 0x5f, 0xd7, 0xc1, 0xbd, 0x70, 0x14, 0x49, 0x3e,
  0xa8, 0xb0, 0x36, 0x3e, 0x00, 0x7c, 0x3e, 0x3e, 0x56, 0x24, 0x10, 0xbe,
  0x61, 0xcd, 0x77, 0x3e, 0xb5, 0xd2, 0x72, 0x3e, 0xcd, 0x08, 0x9e, 0xbc,
  0x42, 0x75, 0x57, 0xbe, 0x5a, 0xac, 0x6c, 0xbe, 0x9f, 0x1a, 0xbe, 0x3c,
  0x34, 0x37, 0x0e, 0xbd, 0x77, 0x42, 0x7c, 0xbe, 0xdc, 0xa3, 0x37, 0x3e,
  0x07, 0x4b, 0xf6, 0xbd, 0x3d, 0x53, 0x97, 0x3e, 0xf6, 0xdd, 0x54, 0x3e,
  0x25, 0x96, 0x06, 0x3d, 0xb1, 0x37, 0x20, 0x3e, 0x4b, 0xd9, 0x77, 0xbd,
  0xc1, 0xb0, 0x93, 0x3e, 0x83, 0xd0, 0x09, 0x3e, 0x64, 0x04, 0xaa, 0x3d,
  0x63, 0xe1, 0x3e, 0x3e, 0x6c, 0x46, 0x82, 0x3e, 0xe0, 0x81, 0xd1, 0xbc,
  0xfa, 0xed, 0x94, 0xbe, 0x45, 0xc0, 0x2e, 0x3e, 0x5b, 0x31, 0x6d, 0x3e,
  0x4a, 0x8e, 0xa6, 0x3d, 0x91, 0x43, 0xfa, 0x3c, 0xe8, 0x70, 0x67, 0x3e,
  0xcd, 0x93, 0xf3, 0xbc, 0xef, 0xbd, 0x18, 0xbf, 0x3c, 0xd4, 0x93, 0xbd,
  0x76, 0x73, 0x40, 0x3e, 0x85, 0x2e, 0x3e, 0xbe, 0xbd, 0x3e, 0xb2, 0xbe,
  0xb4, 0x8b, 0xbd, 0xbe, 0x6c, 0x9c, 0x35, 0xbe, 0x67, 0xa6, 0x74, 0xbf,
  0x9e, 0xac, 0x07, 0xbf, 0xbb, 0x6f, 0xf9, 0x3e, 0x29, 0x7b, 0x36, 0xbe,
  0xa6, 0xc9, 0xff, 0xbe, 0x3d, 0x3a, 0x08, 0xbf, 0x87, 0xe9, 0xaa, 0x3d,
  0x37, 0x4f, 0xb6, 0xbe, 0xc2, 0x33, 0x30, 0x3e, 0xc2, 0x1d, 0xa0, 0x3e,
  0x7d, 0x0c, 0x1b, 0x3e, 0xee, 0x51, 0x17, 0x3e, 0x74, 0x7b, 0x17, 0x3e,
  0xe2, 0xda, 0x7c, 0x3e, 0x0c, 0x5c, 0xea, 0x3e, 0xcb, 0x59, 0xdd, 0xbd,
  0x94, 0x0b, 0x03, 0x3e, 0x39, 0xf5, 0xd7, 0x3c, 0x27, 0xc2, 0x27, 0xbe,
  0x05, 0xa4, 0x52, 0x3e, 0xfe, 0x79, 0x73, 0x3e, 0x12, 0xc4, 0xe0, 0x3e,
  0x6b, 0xdf, 0x7e, 0x3b, 0x81, 0xdd, 0x91, 0xbd, 0x44, 0x18, 0xbe, 0x3e,
  0x5c, 0xc2, 0x04, 0xbe, 0x76, 0x4e, 0x44, 0x3e, 0x03, 0x15, 0x3f, 0x3e,
  0x02, 0xfb, 0x9b, 0xbd, 0xfe, 0x5e, 0xd9, 0xbc, 0x85, 0xdb, 0x78, 0x3e,
  0xa6, 0xe7, 0x46, 0x3e, 0x30, 0xfb, 0xb8, 0x3e, 0x2e, 0x06, 0x03, 0xbe,
  0x4b, 0x2b, 0x8b, 0xbe, 0xa0, 0x22, 0xbd, 0x3d, 0xe0, 0xae, 0x96, 0xbd,
  0x60, 0xe6, 0x11, 0xbc, 0xd4, 0xe1, 0xd5, 0x3d, 0xd4, 0xad, 0xef, 0x3d,
  0x00, 0x0b, 0xd0, 0xba, 0x5c, 0x52, 0x57, 0x3e, 0xf4, 0x28, 0x4b, 0xbe,
  0x74, 0x63, 0x23, 0xbe, 0x60, 0x55, 0x64, 0xbd, 0xb0, 0xe1, 0xe7, 0x3d,
  0x94, 0xf0, 0x7d, 0xbe, 0x5c, 0x24, 0x83, 0xbe, 0xb7, 0x9d, 0x7a, 0xbe,
  0x00, 0x54, 0x4c, 0x3b, 0xac, 0xcf, 0xe7, 0x3d, 0x4e, 0x63, 0xd1, 0xbd,
  0x59, 0xa4, 0x8a, 0x3e, 0x2c, 0x23, 0x77, 0xbd, 0xe4, 0x5e, 0x19, 0x3e,
  0xde, 0xa8, 0x6c, 0x3e, 0x46, 0xdd, 0x8e, 0xbd, 0x76, 0x23, 0x88, 0xbe,
  0xf6, 0x8c, 0x8f, 0xbd, 0xb0, 0x79, 0xbf, 0x3c, 0x1f, 0x38, 0x5f, 0xbe,
  0x78, 0x51, 0x22, 0xbd, 0xbc, 0x84, 0x1c, 0xbd, 0xa8, 0x65, 0x39, 0x3e,
  0x60, 0x41, 0xd2, 0x3d, 0xd0, 0xe7, 0x7f, 0xbe, 0xe9, 0x2a, 0x16, 0xbe,
  0x00, 0xc6, 0x85, 0xbd, 0x13, 0x74, 0x8c, 0x3e, 0xc0, 0x15, 0x8d, 0x3d,
  0x58, 0x2e, 0x3c, 0xbd, 0xcb, 0x34, 0x46, 0xbe, 0x34, 0x8c, 0x3f, 0x3e,
  0x99, 0xad, 0x80, 0xbe, 0x40, 0xfe, 0xda, 0xbb, 0x84, 0x77, 0x4a, 0xbe,
  0x16, 0xdb, 0x89, 0xbe, 0x3b, 0x96, 0x43, 0xbe, 0xb9, 0x49, 0x5f, 0xbe,
  0xfb, 0x1f, 0x8c, 0x3e, 0x7b, 0x92, 0x02, 0xbe, 0x20, 0xad, 0x51, 0xbe,
  0x60, 0x7a, 0x9e, 0xbc, 0x9e, 0xa5, 0x68, 0x3e, 0xf2, 0xfd, 0xd8, 0xbd,
  0x75, 0x5c, 0x0d, 0xbe, 0xff, 0xd1, 0x63, 0xbe, 0x10, 0xef, 0x3a, 0x3d,
  0x80, 0xca, 0x85, 0xbe, 0xf0, 0xbe, 0xd0, 0xbd, 0xed, 0x1d, 0x6c, 0xbe,
  0xd8, 0xa6, 0x37, 0x3d, 0x19, 0xb9, 0x8b, 0x3e, 0xc0, 0xa5, 0xdb, 0x3c,
  0x65, 0xe3, 0x84, 0xbe, 0x38, 0xdb, 0x7d, 0xbe, 0x72, 0xc7, 0x66, 0x3e,
  0xa0, 0xf9, 0x83, 0xbe, 0xa8, 0xd7, 0x8c, 0xbe, 0xc7, 0xba, 0x8a, 0x3e,
  0x48, 0xb6, 0x2d, 0x3d, 0xee, 0xcc, 0x88, 0xbe, 0xd0, 0x37, 0x22, 0x3e,
  0x02, 0xb9, 0xb4, 0xbd, 0x3f, 0x73, 0x31, 0xbe, 0x54, 0xd2, 0xdc, 0x3d,
  0xa0, 0xce, 0x68, 0xbe, 0x09, 0xeb, 0x8f, 0x3e, 0x88, 0x39, 0x1e, 0xbe,
  0xca, 0xef, 0x67, 0x3e, 0x66, 0x6a, 0xaa, 0xbd, 0x5f, 0x06, 0x35, 0xbe,
  0xa8, 0xe9, 0x22, 0x3d, 0xb0, 0x54, 0xdf, 0x3d, 0x7d, 0x97, 0x8b, 0x3e,
  0x5a, 0xa3, 0x98, 0xbd, 0xa0, 0x0a, 0xb5, 0xbc, 0xc0, 0x26, 0x09, 0x3c,
  0xc9, 0xdc, 0x2f, 0x3d, 0xa4, 0x1a, 0xb6, 0xbc, 0xee, 0x52, 0xd6, 0x3d,
  0xea, 0x20, 0x1c, 0x3e, 0xb3, 0x38, 0x7c, 0x3e, 0x7e, 0x4f, 0x26, 0x3d,
  0xf9, 0xaa, 0x8c, 0xbe, 0x2f, 0x45, 0xcc, 0xbd, 0xc2, 0x2a, 0x68, 0xbc,
  0xe6, 0x88, 0xd2, 0xbc, 0x65, 0x46, 0x48, 0x3e, 0xeb, 0x0d, 0x31, 0xbe,
  0x75, 0x16, 0x8f, 0xbb, 0x24, 0xc0, 0x9c, 0xbd, 0xfd, 0x75, 0xbf, 0xbc,
  0x50, 0x87, 0xb1, 0x3d, 0x96, 0xf3, 0x53, 0x3e, 0x45, 0x8d, 0x01, 0x3e,
  0x23, 0x7a, 0xbd, 0xbd, 0xd7, 0xc2, 0x4c, 0x3e, 0xfe, 0x05, 0xba, 0x3d,
  0x2a, 0xb5, 0x3d, 0x3e, 0xcd, 0xaa, 0x57, 0xbe, 0x6c, 0x5b, 0x49, 0xbe,
  0x55, 0x90, 0x40, 0xbd, 0xca, 0x2d, 0x8e, 0x3d, 0x5e, 0xba, 0xe4, 0xbd,
  0xe1, 0x08, 0x20, 0xbe, 0x01, 0xd8, 0x58, 0x3e, 0x33, 0xb3, 0x50, 0x3e,
  0x74, 0x98, 0x08, 0xbd, 0x39, 0xdd, 0x11, 0xbe, 0xab, 0xe7, 0xa5, 0x3c,
  0xe6, 0x18, 0x05, 0x3e, 0x0d, 0x16, 0x2d, 0x3c, 0x57, 0xf1, 0x38, 0xbe,
  0x34, 0xb2, 0x4c, 0x3e, 0xd4, 0x0a, 0xbb, 0xbd, 0x5c, 0xe0, 0x9f, 0xbe,
  0xa7, 0x6b, 0x5b, 0xbe, 0x04, 0x5c, 0x26, 0xbe, 0xca, 0xe8, 0xe8, 0xbd,
  0x8a, 0x29, 0x9c, 0x3e, 0x0e, 0x98, 0x52, 0x3e, 0x16, 0x30, 0xe9, 0xbd,
  0x0b, 0x47, 0x17, 0x3e, 0x32, 0x26, 0xee, 0x3d, 0x25, 0x4d, 0x3a, 0xbd,
  0x9e, 0x5d, 0x4d, 0x3e, 0x4d, 0x4b, 0x86, 0x3e, 0x7c, 0xb1, 0x14, 0x3f,
  0x02, 0x0a, 0xfc, 0x3d, 0x0b, 0x0c, 0xf6, 0xbd, 0x28, 0x6e, 0x05, 0x3f,
  0xca, 0x50, 0x23, 0x3f, 0x09, 0xbc, 0x32, 0x3f, 0x13, 0xcc, 0x0b, 0xbe,
  0x78, 0x54, 0xba, 0x3e, 0xc3, 0x38, 0xe3, 0x3d, 0x98, 0x4d, 0x24, 0xbf,
  0xff, 0xf0, 0x10, 0x3e, 0xe3, 0xc7, 0xd5, 0xbe, 0x1f, 0xde, 0x03, 0xbf,
  0xa4, 0x4b, 0xe0, 0x3d, 0xa9, 0x6d, 0xc8, 0xbe, 0x3a, 0x9d, 0x46, 0x3e,
  0xd4, 0xbd, 0x25, 0xbe, 0x75, 0xec, 0x57, 0xbd, 0x26, 0xf1, 0x82, 0x3c,
  0xbd, 0x0c, 0x27, 0xbd, 0xaa, 0x7f, 0x1d, 0xbe, 0x84, 0x51, 0x00, 0xbf,
  0xd0, 0x3a, 0x83, 0x3d, 0x9d, 0xe2, 0x5e, 0xbe, 0x7d, 0x85, 0xb0, 0xbd,
  0x9d, 0x7e, 0xd2, 0x3d, 0xed, 0x83, 0x93, 0x3e, 0x15, 0x85, 0x75, 0x3d,
  0x5b, 0x28, 0x8a, 0xbd, 0xff, 0x2b, 0xc8, 0xbd, 0xdd, 0x4c, 0x44, 0x3e,
  0x11, 0xde, 0x8e, 0xbe, 0x3a, 0x8d, 0x82, 0x3c, 0x0d, 0x92, 0xe6, 0xbd,
  0x80, 0xb8, 0x38, 0xbe, 0x30, 0xaa, 0x8b, 0x3c, 0x40, 0x6e, 0x7d, 0x3c,
  0xa2, 0xfb, 0x5f, 0x3e, 0x58, 0xe0, 0x54, 0xbe, 0x00, 0x85, 0x8b, 0xbc,
  0x7e, 0x0e, 0xb9, 0xbd, 0x9e, 0xa9, 0x7f, 0xbe, 0xf4, 0x06, 0x0f, 0xbd,
  0xc0, 0xd4, 0xf4, 0x3d, 0xdc, 0x41, 0x53, 0xbe, 0x10, 0x6d, 0x82, 0xbe,
  0xab, 0x06, 0x87, 0x3e, 0xc7, 0xd3, 0x87, 0xbe, 0x94, 0xdf, 0x83, 0xbe,
  0xf4, 0xf1, 0xdb, 0x3d, 0x55, 0xf2, 0x8d, 0xbe, 0x06, 0x62, 0x44, 0x3e,
  0x24, 0x9e, 0x96, 0x3d, 0x80, 0x82, 0x0c, 0x3d, 0x20, 0x97, 0xfd, 0x3c,
  0x4e, 0x3e, 0x2b, 0x3e, 0x90, 0x51, 0x4b, 0x3e, 0x4a, 0xeb, 0xf0, 0xbd,
  0x88, 0x67, 0x21, 0x3e, 0x8c, 0x63, 0xae, 0xbd, 0x92, 0x41, 0x2a, 0xbe,
  0xf9, 0xe1, 0x89, 0x3e, 0xe0, 0x36, 0x7e, 0xbd, 0x1c, 0x71, 0x5a, 0xbd,
  0xf2, 0x89, 0xde, 0xbd, 0xee, 0x38, 0xe7, 0xbd, 0x0e, 0x20, 0x3f, 0x3e,
  0x30, 0x73, 0x96, 0x3d, 0x34, 0xe7, 0x33, 0xbe, 0x00, 0x26, 0x38, 0xbd,
  0x1b, 0xb6, 0x0b, 0xbe, 0xb6, 0x2e, 0x7f, 0xbe, 0xb8, 0x39, 0x37, 0x3d,
  0x7c, 0xe5, 0xca, 0xbd, 0x64, 0x0a, 0x00, 0x3e, 0xe8, 0x21, 0x22, 0x3d,
  0xcb, 0xf1, 0x81, 0xbe, 0x68, 0xd5, 0x1d, 0x3e, 0x00, 0x06, 0x5b, 0xba,
  0x54, 0xbe, 0xdf, 0x3d, 0x50, 0xa8, 0x30, 0x3e, 0xff, 0x30, 0x83, 0x3e,
  0x8c, 0xef, 0xce, 0xbd, 0xa1, 0xab, 0x5a, 0xbe, 0x58, 0x8d, 0x0a, 0x3d,
  0xa2, 0x6f, 0x1b, 0xbe, 0x20, 0xdd, 0xed, 0x3d, 0x04, 0x89, 0xc1, 0xbd,
  0xa0, 0x0e, 0x77, 0x3c, 0x32, 0xb9, 0xb6, 0xbd, 0x54, 0xd7, 0x2d, 0x3e,
  0x6d, 0x40, 0x84, 0x3e, 0xcc, 0x8e, 0xef, 0xbd, 0x2a, 0x18, 0x65, 0x3e,
  0x5c, 0x01, 0x4e, 0xbd, 0xb2, 0xe4, 0x7c, 0x3e, 0x0d, 0xe2, 0x90, 0x3e,
  0x36, 0x70, 0xe4, 0xbd, 0xfe, 0xff, 0xfd, 0xbd, 0x36, 0x61, 0x5b, 0xbe,
  0x73, 0xc3, 0x65, 0xbe, 0x98, 0xe5, 0x3b, 0xbd, 0xb0, 0x46, 0xa9, 0xbc,
  0x29, 0x0c, 0x23, 0xbe, 0x9e, 0xba, 0x19, 0x3e, 0x7f, 0x9f, 0x0a, 0xbe,
  0xf8, 0xaa, 0x37, 0xbe, 0x85, 0xfc, 0x61, 0xbe, 0xa5, 0x16, 0x81, 0x3e,
  0x1e, 0xd9, 0x84, 0xbe, 0xbb, 0xa4, 0x88, 0x3e, 0xc3, 0x4b, 0x8b, 0xbe,
  0xc0, 0x23, 0x05, 0xbc, 0x34, 0xa0, 0x39, 0xbd, 0x56, 0x57, 0x8b, 0xbd,
  0x40, 0x9e, 0xe4, 0x3c, 0xa0, 0xbd, 0xe7, 0x3d, 0xf8, 0xbf, 0xe2, 0x3d,
  0xbf, 0x24, 0x59, 0x3e, 0x25, 0xc5, 0xa2, 0xbf, 0x83, 0xe9, 0x35, 0x3e,
  0x2f, 0x6c, 0x0e, 0x3f, 0xff, 0x19, 0xea, 0x3d, 0xef, 0x97, 0x05, 0x3e,
  0x4e, 0x7c, 0x8b, 0x3e, 0x87, 0x84, 0x87, 0x3e, 0x36, 0xc9, 0x87, 0xbf,
  0x6a, 0xf5, 0x8e, 0x3c, 0xaf, 0x1f, 0x47, 0x3f, 0x44, 0x3c, 0x2e, 0xbe,
  0x65, 0x33, 0x94, 0x3e, 0xb5, 0x0d, 0x80, 0xbd, 0x3c, 0xe1, 0x80, 0x3e,
  0x8e, 0x62, 0xf4, 0xbe, 0x23, 0xeb, 0x60, 0xbe, 0x2a, 0x0e, 0x56, 0x3e,
  0x4b, 0x61, 0x29, 0xbe, 0x00, 0xdd, 0x15, 0x3e, 0x6e, 0xd2, 0x29, 0x3e,
  0x3e, 0x6a, 0x8e, 0x3e, 0x1f, 0x3c, 0x75, 0xbf, 0xd9, 0x87, 0x8b, 0x3e,
  0x62, 0x7a, 0x77, 0x3e, 0xc4, 0x74, 0xf6, 0x3c, 0xdd, 0x11, 0xd0, 0x3d,
  0x0c, 0x02, 0x4a, 0x3e, 0xcd, 0x61, 0xab, 0x3c, 0xfa, 0xae, 0x42, 0xbe,
  0x77, 0x27, 0x7b, 0x3e, 0x82, 0xf5, 0x61, 0x3d, 0x31, 0x81, 0x27, 0xbe,
  0x66, 0x17, 0x7a, 0x3e, 0x9f, 0x85, 0x43, 0xbe, 0xa2, 0xb3, 0x41, 0x3d,
  0x82, 0xa3, 0x56, 0xbf, 0x16, 0x4d, 0x8b, 0xbe, 0x59, 0x87, 0xde, 0x3c,
  0x8b, 0x47, 0x13, 0xbe, 0x40, 0xaf, 0x3a, 0xbe, 0x74, 0x92, 0x1f, 0xbe,
  0x00, 0xc3, 0xc1, 0xbc, 0xf0, 0x0b, 0xbf, 0x3c, 0x78, 0x09, 0xb4, 0x3d,
  0xe6, 0xf6, 0x70, 0x3e, 0x80, 0xf6, 0x2e, 0xbe, 0x02, 0x6d, 0x58, 0x3e,
  0xde, 0x76, 0x45, 0x3e, 0xa4, 0x88, 0x12, 0xbe, 0xc2, 0x47, 0xc2, 0xbd,
  0x14, 0xab, 0xac, 0xbd, 0x64, 0xe4, 0x36, 0x3e, 0xab, 0xab, 0x82, 0xbe,
  0x6c, 0xaa, 0xb1, 0x3d, 0x20, 0x5e, 0x5e, 0xbc, 0x32, 0x4f, 0xfa, 0xbd,
  0xd4, 0x0d, 0x5a, 0xbe, 0xa2, 0xbb, 0xb2, 0xbd, 0xa0, 0xda, 0x11, 0xbc,
  0xca, 0x34, 0x4c, 0xbe, 0x8c, 0x7e, 0x9e, 0xbd, 0xc8, 0x2e, 0x8b, 0xbe,
  0x2c, 0xf9, 0x83, 0x3d, 0x2f, 0x59, 0x84, 0xbe, 0xc0, 0xf1, 0xba, 0x3c,
  0xc0, 0xc4, 0x01, 0x3e, 0x8c, 0x2e, 0x04, 0x3e, 0x9a, 0x5c, 0x42, 0x3e,
  0x15, 0x3e, 0x1d, 0xbe, 0xc8, 0xe0, 0x4c, 0xbe, 0x94, 0x17, 0x2f, 0xbd,
  0xda, 0x3f, 0x86, 0xbe, 0x2f, 0xbe, 0x86, 0xbe, 0xa0, 0xef, 0x8c, 0x3c,
  0xbc, 0x39, 0xd1, 0xbd, 0x20, 0x6a, 0x29, 0xbe, 0xea, 0xaa, 0x66, 0xbe,
  0x70, 0x9d, 0x62, 0x3d, 0x61, 0x0e, 0x3b, 0xbe, 0xfc, 0x6a, 0x08, 0x3e,
  0x18, 0x49, 0x79, 0x3d, 0x2c, 0xac, 0x04, 0x3e, 0x84, 0xa1, 0x31, 0xbe,
  0xd3, 0x0b, 0xaf, 0x3d, 0x52, 0x24, 0x20, 0xbf, 0xed, 0x68, 0x92, 0xbe,
  0x40, 0x80, 0xfd, 0x3e, 0x6c, 0xf1, 0x7b, 0xbd, 0xea, 0x57, 0x07, 0xbd,
  0x9a, 0x7a, 0x7e, 0x3c, 0x42, 0xc1, 0x00, 0xbe, 0x27, 0xb7, 0xe6, 0xbe,
  0x3a, 0xbe, 0xc6, 0x3d, 0x49, 0x48, 0x14, 0x3e, 0xf9, 0x86, 0xac, 0xbe,
  0x6c, 0x2f, 0xa8, 0xbe, 0xdc, 0x5f, 0x62, 0xbe, 0x98, 0x5a, 0xae, 0x3d,
  0xa2, 0xf8, 0x6e, 0x3e, 0xb6, 0x12, 0xc2, 0x3e, 0x11, 0x15, 0xb2, 0x3d,
  0xe0, 0xc1, 0x51, 0x3e, 0x10, 0x2b, 0x80, 0x3e, 0x6b, 0x2d, 0x07, 0x3f,
  0xef, 0xb4, 0x80, 0xbe, 0x04, 0x61, 0x07, 0xbf, 0x57, 0x54, 0xb8, 0x3d,
  0x7d, 0xf1, 0x3e, 0x3e, 0xe9, 0x18, 0x12, 0x3e, 0xcb, 0x1c, 0x22, 0x3c,
  0x09, 0x75, 0x83, 0x3e, 0x8a, 0x50, 0x19, 0x3e, 0x36, 0x14, 0x13, 0x3e,
  0x1f, 0xf3, 0x4d, 0xbe, 0xb1, 0x04, 0x17, 0xbe, 0x61, 0x69, 0x5a, 0xbe,
  0xfa, 0x09, 0x03, 0x3d, 0xbc, 0xe9, 0x4e, 0xbe, 0xdd, 0x7b, 0x56, 0x3e,
  0x43, 0x3a, 0x19, 0xbf, 0x3e, 0x86, 0x80, 0xbe, 0x6e, 0x9b, 0x23, 0x3e,
  0x3d, 0xbf, 0xec, 0xbc, 0x94, 0x85, 0x8f, 0xbd, 0x1a, 0x37, 0x28, 0xbe,
  0x40, 0x64, 0xff, 0xbb, 0x4b, 0xf1, 0x4f, 0xbe, 0x8e, 0xfa, 0x56, 0xbe,
  0x20, 0x8c, 0x1e, 0x3e, 0x94, 0xf4, 0x15, 0xbd, 0x48, 0xcc, 0x0f, 0x3d,
  0xeb, 0xcb, 0x42, 0xbe, 0x70, 0x95, 0xcd, 0xbc, 0xbc, 0x72, 0x76, 0xbe,
  0xfe, 0xf1, 0x18, 0x3e, 0x40, 0xb5, 0xcb, 0xbb, 0xf0, 0x21, 0xc4, 0xbd,
  0x3e, 0x10, 0x34, 0xbe, 0x0c, 0x6b, 0x0f, 0x3e, 0xf4, 0xa1, 0xeb, 0x3d,
  0x60, 0xcc, 0xa9, 0xbc, 0x6a, 0x60, 0x6c, 0xbe, 0xa0, 0x22, 0x4a, 0xbc,
  0xe0, 0x1c, 0x2d, 0x3d, 0xba, 0xa4, 0xd7, 0xbd, 0x77, 0x17, 0x0b, 0xbe,
  0xe7, 0x4a, 0x2b, 0xbe, 0xf6, 0x54, 0x2f, 0x3e, 0x00, 0xbd, 0xa5, 0x3d,
  0x3c, 0x73, 0x54, 0xbe, 0xd6, 0x8c, 0x53, 0xbe, 0xa2, 0x06, 0x60, 0xbe,
  0xd4, 0x2d, 0x89, 0x3d, 0xb3, 0x58, 0x19, 0xbe, 0xa6, 0x8d, 0xa6, 0xbd,
  0x01, 0xbb, 0x79, 0xbe, 0xf0, 0xce, 0xfb, 0x3d, 0x4c, 0x2b, 0x8f, 0xbe,
  0xec, 0x67, 0x59, 0x3e, 0x10, 0x1e, 0x5e, 0xbe, 0x3a, 0xf4, 0x5e, 0xbe,
  0x63, 0x96, 0x88, 0x3e, 0xa2, 0x28, 0x39, 0xbe, 0x00, 0xed, 0xc0, 0xbc,
  0xf0, 0xf0, 0x95, 0x3d, 0x7c, 0x1d, 0xdb, 0x3d, 0x53, 0x4c, 0x80, 0x3e,
  0xf2, 0xf5, 0xff, 0xff, 0x04, 0x00, 0x00, 0x00, 0x80, 0x00, 0x00, 0x00,
  0x50, 0x11, 0x2e, 0x3e, 0xf7, 0x26, 0xb7, 0x3d, 0x00, 0x00, 0x00, 0x00,
  0x91, 0xe1, 0x2f, 0x3e, 0xc0, 0x7c, 0xc7, 0x3c, 0x6c, 0x1a, 0xbb, 0x3c,
  0x45, 0xf6, 0x12, 0xbc, 0x54, 0xce, 0x9f, 0xbc, 0x00, 0x00, 0x00, 0x00,
  0x10, 0x8d, 0x03, 0xbd, 0x2a, 0x56, 0x2c, 0x3d, 0x00, 0x00, 0x00, 0x00,
  0x4d, 0x48, 0x08, 0xbc, 0x00, 0x00, 0x00, 0x00, 0x00, 0x00, 0x00, 0x00,
  0x00, 0x00, 0x00, 0x00, 0x44, 0x3e, 0x3a, 0xbc, 0xd3, 0xaa, 0x7b, 0xbd,
  0xc0, 0xec, 0x91, 0x3d, 0x71, 0x6d, 0x10, 0x3e, 0x65, 0x07, 0xae, 0x3d,
  0xce, 0x07, 0xd8, 0x3d, 0x00, 0x00, 0x00, 0x00, 0x00, 0x00, 0x00, 0x00,
  0x71, 0x7e, 0xf7, 0xbc, 0x58, 0xb5, 0xd9, 0xbc, 0x00, 0x00, 0x00, 0x00,
  0x00, 0x00, 0x00, 0x00, 0xae, 0x61, 0x19, 0xbd, 0x00, 0x00, 0x00, 0x00,
  0x33, 0xff, 0x6a, 0x3b, 0x00, 0x00, 0x00, 0x00, 0x7e, 0xf6, 0xff, 0xff,
  0x04, 0x00, 0x00, 0x00, 0x3c, 0x00, 0x00, 0x00, 0x00, 0x00, 0x00, 0x00,
  0x12, 0xe6, 0x83, 0x3d, 0xa3, 0x1f, 0x08, 0xbc, 0x00, 0x00, 0x00, 0x00,
  0x00, 0x00, 0x00, 0x00, 0xba, 0x52, 0x0c, 0xbe, 0x9e, 0x74, 0x13, 0xbd,
  0xfc, 0x6c, 0xa0, 0xbc, 0x0a, 0x25, 0x61, 0xbc, 0xe0, 0x17, 0xe1, 0x3d,
  0x00, 0x00, 0x00, 0x00, 0x00, 0x00, 0x00, 0x00, 0x00, 0x00, 0x00, 0x00,
  0x00, 0x00, 0x00, 0x00, 0x1f, 0x5a, 0x4e, 0xbd, 0xc6, 0xf6, 0xff, 0xff,
  0x04, 0x00, 0x00, 0x00, 0x10, 0x00, 0x00, 0x00, 0x4f, 0xc7, 0x01, 0x3f,
  0x04, 0x85, 0x60, 0xbe, 0xb0, 0x61, 0x3b, 0xbe, 0x3c, 0xa4, 0x80, 0xbe,
  0xe2, 0xf6, 0xff, 0xff, 0x04, 0x00, 0x00, 0x00, 0x80, 0x07, 0x00, 0x00,
  0xbb, 0xd4, 0x13, 0xbe, 0xb1, 0xfa, 0xa5, 0xbe, 0x78, 0x3a, 0x41, 0xbd,
  0xee, 0x13, 0x94, 0xbe, 0x32, 0x1f, 0x81, 0xbe, 0xf0, 0x13, 0x74, 0xbe,
  0x01, 0x2a, 0x88, 0xbe, 0x7e, 0x84, 0x9c, 0xbe, 0x00, 0xf7, 0x23, 0x3e,
  0xd4, 0x24, 0xb1, 0x3e, 0xa0, 0xc7, 0x7a, 0x3d, 0x54, 0x8e, 0x4a, 0xbe,
  0x8a, 0x05, 0x03, 0x3e, 0x00, 0x4f, 0x63, 0x3e, 0xac, 0xc3, 0x7a, 0xbe,
  0x02, 0x12, 0x99, 0x3e, 0x50, 0x62, 0x8e, 0xbc, 0xfc, 0xb8, 0x55, 0x3e,
  0x68, 0xae, 0x3e, 0x3d, 0xd8, 0x0a, 0x97, 0xbe, 0x8f, 0x7c, 0x9a, 0xbe,
  0x44, 0xca, 0x24, 0x3e, 0x9d, 0x6a, 0x99, 0xbe, 0xd0, 0xd7, 0x91, 0xbe,
  0xe0, 0x75, 0xad, 0xbc, 0xec, 0xe4, 0x62, 0x3e, 0xb0, 0x45, 0xbf, 0xbd,
  0x95, 0x38, 0x99, 0xbe, 0xdc, 0x27, 0xc3, 0xbd, 0x8c, 0x6f, 0xa7, 0x3d,
  0x7a, 0x1e, 0x92, 0xbe, 0xd8, 0x6c, 0x6f, 0x3e, 0x73, 0xae, 0xf6, 0x3e,
  0xc9, 0x31, 0xfe, 0xbd, 0x9b, 0xa0, 0x96, 0xbe, 0xd5, 0x6e, 0x03, 0xbe,
  0x81, 0x15, 0x32, 0x3e, 0xaf, 0xcd, 0x84, 0x3f, 0x00, 0x64, 0x74, 0xbe,
  0xfa, 0xa5, 0x2d, 0x3e, 0xf4, 0x95, 0x8a, 0xbe, 0x3b, 0xad, 0x9c, 0xbe,
  0x7f, 0x9a, 0x3c, 0xbf, 0x00, 0x05, 0xdd, 0xba, 0x19, 0x60, 0xcb, 0x3d,
  0x24, 0xdb, 0x80, 0x3e, 0x5c, 0x0a, 0x8f, 0x3e, 0x00, 0xec, 0xa8, 0x3e,
  0xe2, 0x43, 0xbd, 0x3e, 0x31, 0x1d, 0x61, 0xbf, 0x53, 0x0f, 0x37, 0xbf,
  0x3b, 0x9b, 0xd1, 0x3e, 0x02, 0xe3, 0x82, 0x3e, 0x3d, 0xaa, 0xcb, 0xbe,
  0xd0, 0xaf, 0xa9, 0x3d, 0xd8, 0xcc, 0x32, 0x3d, 0xd9, 0xcd, 0x50, 0xbb,
  0x44, 0xe1, 0x53, 0x3f, 0x90, 0xe5, 0x5a, 0x3e, 0xf0, 0xd8, 0x9e, 0x3e,
  0x67, 0x26, 0xea, 0xbe, 0x85, 0xd5, 0x65, 0xbe, 0x7b, 0x44, 0x59, 0xbf,
  0xed, 0x66, 0xb1, 0xbe, 0xfa, 0x8a, 0x81, 0xbd, 0xdb, 0x7c, 0x43, 0x3e,
  0xf8, 0x96, 0x14, 0x3e, 0xfb, 0xc3, 0x1c, 0x3e, 0xd2, 0xe1, 0x99, 0xbc,
  0x97, 0xfd, 0x6c, 0xbe, 0x0c, 0x9e, 0x88, 0x3e, 0x8a, 0x53, 0x1b, 0xbe,
  0x50, 0xa6, 0x99, 0x3e, 0xd7, 0x33, 0x75, 0x3d, 0x34, 0xd3, 0x60, 0x3e,
  0xfa, 0x16, 0x94, 0xbe, 0xc1, 0x44, 0x03, 0x3c, 0x22, 0x8b, 0x57, 0xbe,
  0xc0, 0xfd, 0x11, 0x3d, 0x18, 0x76, 0x55, 0x3d, 0x8d, 0x1d, 0xa2, 0x3e,
  0x6c, 0x7d, 0xac, 0xbe, 0x00, 0x21, 0xf9, 0xbc, 0xd3, 0x74, 0xa3, 0xbe,
  0xcf, 0x42, 0x4c, 0xbd, 0xf0, 0xc2, 0x5a, 0xbe, 0xe0, 0x6b, 0xbf, 0xbd,
  0xa0, 0x17, 0x99, 0x3e, 0x8c, 0x19, 0x27, 0x3e, 0xb0, 0x4c, 0x83, 0xbd,
  0x30, 0xbc, 0xef, 0xbc, 0xc8, 0x04, 0xa5, 0x3e, 0x9f, 0xbf, 0x58, 0x3c,
  0x98, 0x22, 0x33, 0xbd, 0x38, 0xa6, 0x92, 0xbe, 0x6c, 0xb0, 0x84, 0x3d,
  0xa6, 0x04, 0x51, 0xbe, 0x48, 0x3f, 0x61, 0x3d, 0x58, 0x35, 0x25, 0xbd,
  0x48, 0x49, 0x63, 0xbd, 0xc0, 0x95, 0x9a, 0xbe, 0x95, 0x9d, 0x65, 0xbe,
  0x4c, 0x15, 0x92, 0xbe, 0x8e, 0x46, 0x08, 0x3e, 0x14, 0x25, 0x58, 0x3e,
  0x98, 0xa9, 0x9f, 0xbd, 0xc4, 0x50, 0xb2, 0xbe, 0xb8, 0xeb, 0x1b, 0xbd,
  0x73, 0xf3, 0x40, 0xbe, 0xd0, 0x2c, 0x84, 0x3e, 0x20, 0xf6, 0x85, 0x3e,
  0x30, 0x80, 0xa0, 0xbe, 0x6a, 0x3e, 0x29, 0xbe, 0x10, 0xd1, 0xd3, 0x3d,
  0x54, 0x2e, 0xd8, 0xbd, 0xf4, 0x7e, 0xf9, 0x3d, 0x80, 0xa7, 0x27, 0xbb,
  0x48, 0x41, 0x51, 0x3e, 0x52, 0x36, 0xaf, 0xbe, 0x80, 0x21, 0x90, 0x3e,
  0xb2, 0xd7, 0x91, 0x3e, 0xea, 0x52, 0xa8, 0xbe, 0x6f, 0xfd, 0x5c, 0xbe,
  0x05, 0x5f, 0x90, 0xbe, 0xf7, 0x1a, 0xa3, 0xbe, 0xc6, 0x68, 0x5b, 0xbe,
  0xa0, 0xe9, 0x81, 0xbe, 0x0c, 0x28, 0xab, 0x3e, 0xc1, 0x14, 0x54, 0xbe,
  0x28, 0xb0, 0x7d, 0xbe, 0x2e, 0x43, 0x6e, 0xbe, 0xa0, 0x52, 0x81, 0x3d,
  0x2d, 0x92, 0xa0, 0xbe, 0x70, 0x10, 0x20, 0x3d, 0x71, 0x30, 0x12, 0xbe,
  0x6b, 0x11, 0x1b, 0xbe, 0xb4, 0xa9, 0x8d, 0xbe, 0xe8, 0xa3, 0xae, 0x3e,
  0x00, 0xc1, 0x86, 0x3e, 0x50, 0x87, 0xc4, 0xbd, 0x79, 0x16, 0x2d, 0xbe,
  0xe9, 0x3a, 0x10, 0xbe, 0xa4, 0xa2, 0xaa, 0x3d, 0x9c, 0x97, 0xad, 0x3e,
  0x27, 0x2d, 0x76, 0xbe, 0x60, 0x56, 0xa5, 0x3c, 0x00, 0x74, 0x1e, 0x3c,
  0x74, 0x7a, 0x7d, 0xbe, 0x26, 0xb3, 0xb6, 0x3e, 0xf0, 0x2e, 0x58, 0x3e,
  0x59, 0xc6, 0x46, 0xbe, 0xd0, 0x40, 0x39, 0xbd, 0x6f, 0x9e, 0x26, 0xbe,
  0x24, 0xf1, 0x20, 0x3e, 0xc0, 0x80, 0xb9, 0x3c, 0x54, 0xa4, 0x70, 0x3e,
  0x44, 0x7b, 0x17, 0x3e, 0xd4, 0xcc, 0xa5, 0xbd, 0x04, 0x5d, 0x3e, 0x3e,
  0xc0, 0xfd, 0x85, 0xbc, 0xfe, 0xe3, 0x77, 0xbe, 0xcc, 0x78, 0x92, 0x3e,
  0x70, 0x54, 0xa4, 0x3c, 0xbf, 0xdb, 0x37, 0xbf, 0x4f, 0x5a, 0x54, 0x3c,
  0xcb, 0xe1, 0xc9, 0xbe, 0xea, 0x8a, 0x6c, 0xbe, 0xf0, 0x6b, 0xd4, 0xbd,
  0x46, 0x7c, 0x77, 0xbe, 0x63, 0x58, 0x5e, 0x3f, 0x31, 0x11, 0xc6, 0xbe,
  0xa7, 0x17, 0x91, 0xbe, 0xd4, 0x3a, 0x2d, 0x3f, 0x5d, 0xc1, 0xa2, 0xbe,
  0xd6, 0x68, 0xf1, 0xbd, 0x2e, 0x6d, 0x98, 0xbe, 0x99, 0xbb, 0x1a, 0x3f,
  0x81, 0x4b, 0x48, 0x3f, 0x3f, 0xa6, 0x22, 0x3b, 0xb7, 0xbb, 0xcc, 0xbe,
  0x49, 0xe8, 0x38, 0x3e, 0x46, 0x38, 0x57, 0xbe, 0xf8, 0x91, 0x33, 0x3e,
  0x8e, 0x0d, 0x94, 0xbe, 0x44, 0x44, 0x46, 0xbd, 0x74, 0xc2, 0x82, 0x3f,
  0x94, 0x72, 0x6b, 0x3e, 0xed, 0x07, 0x87, 0xbe, 0x61, 0xb2, 0x55, 0x3e,
  0x2e, 0x75, 0xa9, 0x3e, 0x18, 0x27, 0x97, 0x3e, 0x9b, 0x98, 0x85, 0xbe,
  0x2b, 0x80, 0xa4, 0xbe, 0xac, 0xac, 0x6b, 0xbe, 0x04, 0xe5, 0x8e, 0xbe,
  0x9d, 0x4a, 0x4b, 0xbe, 0x50, 0x33, 0x2f, 0x3e, 0x50, 0x78, 0x9b, 0x3d,
  0xcf, 0x26, 0x7c, 0xbd, 0xc6, 0xc2, 0x24, 0xbb, 0x1c, 0x0c, 0xd3, 0xbd,
  0x6a, 0x9a, 0x10, 0x3d, 0x43, 0xaa, 0xdf, 0x3d, 0x90, 0x4b, 0x7a, 0xbd,
  0x1f, 0xa8, 0xac, 0xbe, 0x40, 0xe3, 0xcc, 0x3c, 0xe8, 0x15, 0x23, 0x3d,
  0x74, 0xee, 0xb3, 0xbd, 0x70, 0xd7, 0x6e, 0x3e, 0x33, 0x95, 0x90, 0x3c,
  0x7c, 0xab, 0x82, 0x3e, 0xca, 0x37, 0xef, 0x3d, 0x81, 0xa8, 0x71, 0xbe,
  0xd1, 0xf9, 0x09, 0x3e, 0x33, 0xb5, 0x38, 0xbe, 0x7e, 0x7b, 0x91, 0x3e,
  0x31, 0x81, 0xa1, 0x3d, 0x75, 0x85, 0x0d, 0x3d, 0xe4, 0x4f, 0x64, 0x3e,
  0xfa, 0xdf, 0x01, 0x3e, 0x44, 0x8d, 0xcb, 0x3d, 0x46, 0xce, 0xab, 0xbe,
  0x7a, 0x61, 0x9f, 0x3d, 0xc4, 0xd9, 0x95, 0xbd, 0xe6, 0x49, 0x59, 0xbe,
  0xd6, 0xab, 0x43, 0xbe, 0xa0, 0x35, 0xc4, 0xbd, 0xa0, 0x4b, 0x68, 0xbe,
  0x4c, 0x53, 0x33, 0x3e, 0xdd, 0x1a, 0xbd, 0xbe, 0x1b, 0x53, 0x11, 0xbe,
  0x8e, 0x03, 0x8f, 0x3e, 0xe6, 0x8e, 0x50, 0xbe, 0x69, 0xca, 0xc4, 0xbd,
  0x70, 0xb9, 0xa1, 0x3e, 0x48, 0xb0, 0x69, 0x3e, 0x22, 0x93, 0xa5, 0x3e,
  0xb4, 0x6f, 0x38, 0xbe, 0x08, 0x39, 0x01, 0xbd, 0xc0, 0xe3, 0x9b, 0xbe,
  0x82, 0x50, 0xaf, 0xbd, 0x19, 0x01, 0x9d, 0x3e, 0xc2, 0xa7, 0x61, 0x3d,
  0x4d, 0xeb, 0xba, 0xbe, 0x9d, 0xff, 0xbe, 0xbe, 0x05, 0x3b, 0xa9, 0xbe,
  0xa0, 0x56, 0x59, 0x3c, 0x1f, 0xd3, 0x37, 0xbe, 0xd1, 0x97, 0xfe, 0x3c,
  0xa9, 0x59, 0x0c, 0x3e, 0x04, 0x35, 0x01, 0x3e, 0x91, 0x32, 0xae, 0xbe,
  0xf1, 0x02, 0x66, 0x3d, 0xac, 0x59, 0x97, 0x3d, 0xe4, 0xb8, 0x09, 0x3e,
  0x40, 0xa3, 0x9e, 0x3d, 0x33, 0xd2, 0x76, 0x3e, 0x79, 0x99, 0x21, 0x3e,
  0x61, 0x72, 0x35, 0xbe, 0x85, 0x17, 0x6e, 0x3e, 0xad, 0x88, 0xe5, 0xbd,
  0x0a, 0x37, 0x89, 0x3d, 0xfa, 0x96, 0xb5, 0x3e, 0x04, 0x46, 0x3e, 0x3e,
  0xc6, 0x2d, 0x0d, 0x3e, 0x67, 0x88, 0x03, 0x3e, 0xb9, 0x41, 0x86, 0x3d,
  0xe4, 0xa6, 0x92, 0xbd, 0x83, 0xd4, 0xab, 0xbe, 0x04, 0xfc, 0x80, 0x3e,
  0x63, 0x0f, 0x1d, 0xbe, 0xf0, 0xd7, 0x75, 0x3e, 0xf5, 0x41, 0x5f, 0x3e,
  0x74, 0x70, 0x24, 0xbe, 0x13, 0x82, 0x42, 0xbc, 0x91, 0x26, 0x8f, 0xbe,
  0xe0, 0x49, 0x8c, 0xbe, 0xd1, 0xa0, 0xac, 0xbe, 0xe0, 0xeb, 0x86, 0x3c,
  0x32, 0x93, 0xb5, 0x3e, 0x89, 0xd7, 0x40, 0xbe, 0x60, 0x28, 0x9b, 0x3d,
  0x5c, 0x83, 0x3b, 0xbe, 0x20, 0x82, 0x4a, 0x3d, 0x4e, 0x95, 0x44, 0x3e,
  0x5d, 0xb6, 0x9a, 0xbe, 0x9f, 0xe9, 0x34, 0x3e, 0x1c, 0x0e, 0x40, 0xbe,
  0x2e, 0xe2, 0x85, 0x3e, 0x54, 0xe8, 0x1e, 0x3f, 0x00, 0x4d, 0xd1, 0xbd,
  0x1c, 0x91, 0x53, 0x3f, 0xac, 0xca, 0x90, 0x3e, 0xbe, 0xad, 0x42, 0xbf,
  0x46, 0x60, 0x83, 0x3e, 0x68, 0x41, 0x76, 0xbe, 0x9f, 0x7e, 0x53, 0xbe,
  0x53, 0x0d, 0x86, 0x3f, 0xbe, 0xe4, 0x2a, 0x3f, 0x90, 0x33, 0xc6, 0x3d,
  0xde, 0xf6, 0xfc, 0x3e, 0x54, 0x35, 0xba, 0xbd, 0xdc, 0xf1, 0x84, 0x3e,
  0x60, 0x31, 0x0c, 0x3d, 0x2c, 0x19, 0x26, 0xbe, 0xbc, 0xbf, 0x21, 0x3f,
  0x2d, 0x39, 0x3d, 0x3f, 0x2a, 0x94, 0xed, 0x3d, 0xbe, 0x48, 0x7d, 0x3e,
  0x1e, 0x9f, 0x57, 0x3f, 0xf8, 0x44, 0x20, 0xbd, 0x28, 0xa6, 0x5a, 0x3e,
  0x8b, 0x65, 0x6a, 0xbe, 0xfd, 0xde, 0x1d, 0xbf, 0x16, 0x7b, 0x95, 0x3e,
  0x64, 0xe4, 0xca, 0xbd, 0x60, 0x0d, 0x29, 0x3f, 0xac, 0x21, 0x6b, 0x3e,
  0xf5, 0x67, 0x2d, 0x3e, 0x41, 0x0a, 0x45, 0xbe, 0x38, 0xfc, 0x86, 0x3d,
  0xdc, 0xe6, 0x5f, 0x3e, 0x92, 0x6e, 0x89, 0x3e, 0xfc, 0xa9, 0xcc, 0x3d,
  0xe0, 0x26, 0x0d, 0xbe, 0xf8, 0x69, 0xad, 0xbd, 0x20, 0x1c, 0x3b, 0x3e,
  0x10, 0x04, 0xbc, 0xbc, 0xe8, 0x29, 0x51, 0x3d, 0x6f, 0xdd, 0xa2, 0xbe,
  0xd8, 0x9b, 0x72, 0xbd, 0x81, 0xea, 0xa0, 0xbe, 0x28, 0x47, 0x89, 0xbd,
  0xa2, 0x07, 0x86, 0xbe, 0x58, 0x4d, 0xfc, 0xbd, 0x28, 0x2e, 0x14, 0x3d,
  0xd0, 0x25, 0x2d, 0x3d, 0x81, 0xa2, 0x6a, 0xbe, 0xdc, 0x8c, 0x74, 0x3e,
  0x04, 0xc9, 0x80, 0x3d, 0xf0, 0x3e, 0xa7, 0xbe, 0x44, 0xce, 0x34, 0x3e,
  0x27, 0x6d, 0x02, 0xbe, 0x95, 0x53, 0x9b, 0xbe, 0x14, 0xf2, 0xd6, 0x3d,
  0x20, 0x44, 0xa1, 0xbd, 0x9d, 0x71, 0x32, 0xbe, 0x8a, 0xd6, 0x06, 0x3e,
  0xdc, 0x51, 0xb4, 0xbd, 0x9c, 0x18, 0x9f, 0xbd, 0x2c, 0x5d, 0xae, 0x3e,
  0xf8, 0x7a, 0x24, 0x3e, 0x1a, 0x0b, 0x8c, 0x3e, 0x86, 0x0e, 0x86, 0xbe,
  0x8c, 0xd9, 0x82, 0x3d, 0xac, 0x00, 0xaf, 0xbe, 0x1d, 0xfb, 0x6b, 0xbe,
  0x2b, 0x42, 0xaa, 0xbe, 0x06, 0x26, 0x32, 0xbe, 0x5e, 0x75, 0x8e, 0x3e,
  0xc0, 0x01, 0x2d, 0xbe, 0x08, 0xc6, 0x75, 0xbe, 0xf0, 0x31, 0xa6, 0xbe,
  0x00, 0xee, 0x9a, 0x3d, 0x00, 0x5a, 0xcc, 0xba, 0xa2, 0x10, 0x68, 0xbe,
  0xa3, 0x49, 0x22, 0xbe, 0x95, 0xd3, 0x19, 0xbe, 0xfb, 0xad, 0x8f, 0xbe,
  0xcc, 0x18, 0xb4, 0xbe, 0xf4, 0x67, 0x38, 0xbe, 0x7e, 0x11, 0xad, 0x3e,
  0xe6, 0x5c, 0x11, 0x3e, 0x68, 0x2b, 0xad, 0xbe, 0xb0, 0x47, 0xfd, 0xbc,
  0x72, 0xf0, 0xfc, 0xbd, 0xc0, 0x09, 0x24, 0x3d, 0xc0, 0x9b, 0xbb, 0x3c,
  0x74, 0x50, 0x8b, 0xbe, 0x77, 0xc0, 0x3f, 0xbe, 0xb0, 0x90, 0x6d, 0xbe,
  0x28, 0xec, 0x05, 0xbe, 0x60, 0x9e, 0x29, 0x3c, 0x8c, 0x2a, 0xb2, 0x3e,
  0x41, 0x5d, 0x42, 0xbe, 0x61, 0xbb, 0x0f, 0xbe, 0xd2, 0x45, 0x9b, 0x3e,
  0xf5, 0x52, 0x28, 0xbe, 0x98, 0x4c, 0x01, 0xbd, 0xb0, 0x12, 0xf5, 0xbd,
  0xc0, 0xf2, 0xc8, 0x3c, 0x28, 0x25, 0x9f, 0x3e, 0xd6, 0x05, 0x07, 0xbe,
  0x12, 0x98, 0xad, 0x3e, 0xc6, 0xfa, 0x8d, 0xbe, 0x30, 0x52, 0x06, 0x3e,
  0xb1, 0xdf, 0x2b, 0xbe, 0xd5, 0xab, 0xb3, 0xbe, 0xb6, 0xda, 0xa1, 0x3e,
  0x7c, 0xc8, 0xb5, 0x3e, 0x0a, 0xd7, 0xff, 0xbd, 0xd6, 0xbc, 0xaa, 0x3e,
  0x84, 0x34, 0xb3, 0x3e, 0xdc, 0x89, 0x7e, 0x3e, 0x27, 0x97, 0x73, 0xbe,
  0x71, 0xf3, 0xa8, 0xbe, 0x60, 0xa5, 0xa6, 0x3c, 0x78, 0x28, 0x9e, 0xbe,
  0xd0, 0x09, 0xc7, 0x3d, 0xe6, 0xe6, 0xe9, 0xbd, 0x2d, 0xb1, 0xb6, 0xbe,
  0x10, 0xba, 0xaf, 0x3e, 0xe8, 0x9d, 0x34, 0x3e, 0xb8, 0x04, 0x22, 0x3e,
  0xb0, 0x68, 0x95, 0xbe, 0x50, 0xe5, 0x24, 0xbd, 0xef, 0x27, 0x9e, 0xbe,
  0x70, 0xcf, 0x91, 0x3e, 0xac, 0x04, 0x5f, 0x3e, 0x38, 0x57, 0xa6, 0xbe,
  0xb8, 0x8f, 0xca, 0xbd, 0x20, 0xb8, 0xab, 0x3e, 0x1c, 0x20, 0x97, 0xbd,
  0x96, 0x39, 0xac, 0x3e, 0x98, 0xec, 0x10, 0x3d, 0x2d, 0xa8, 0xaf, 0xbe,
  0xc1, 0x18, 0x7d, 0xbe, 0x58, 0x28, 0x45, 0xbd, 0xbe, 0x19, 0x7f, 0xbe,
  0x56, 0xc4, 0x5d, 0xbe, 0xa8, 0xd9, 0x0c, 0x3e, 0x42, 0x72, 0xaa, 0x3e,
  0x98, 0x15, 0x10, 0xbd, 0x94, 0xb2, 0x4f, 0xbe, 0xa4, 0x02, 0xa5, 0x3e,
  0xdb, 0x8a, 0x6b, 0xbe, 0xb0, 0xba, 0x14, 0x3d, 0x39, 0x06, 0x30, 0xbe,
  0x08, 0x51, 0x1e, 0xbd, 0xbe, 0x59, 0x72, 0xbe, 0xdc, 0x65, 0x20, 0xbe,
  0x0d, 0x1b, 0x3a, 0xbe, 0x54, 0xbc, 0x07, 0x3e, 0x95, 0x85, 0x87, 0xbe,
  0xc0, 0xe5, 0x89, 0x3d, 0xa8, 0xad, 0x12, 0x3e, 0x10, 0xa6, 0x56, 0xbd,
  0x3c, 0xc7, 0x3d, 0x3e, 0x48, 0x8e, 0x8c, 0xbe, 0xa7, 0xec, 0xbd, 0xbe,
  0xb0, 0x71, 0x45, 0xbd, 0x61, 0xdf, 0xff, 0xbe, 0x97, 0x3a, 0xcf, 0x3e,
  0xe0, 0x8c, 0xce, 0x3d, 0x5c, 0x0b, 0x49, 0xbe, 0x97, 0xc7, 0x8c, 0x3e,
  0x84, 0x8c, 0x82, 0xbe, 0x35, 0xd3, 0x44, 0x3f, 0xea, 0x24, 0x1b, 0xbf,
  0xd4, 0x57, 0xf7, 0xbd, 0x90, 0xe7, 0xd6, 0x3e, 0xac, 0x27, 0xd9, 0xbd,
  0x7c, 0x0c, 0xa9, 0xbd, 0xfb, 0xaf, 0x56, 0xbe, 0x90, 0x6c, 0x5f, 0x3f,
  0x93, 0x96, 0x4d, 0x3f, 0xdb, 0xaf, 0xf1, 0xbe, 0x76, 0x84, 0x20, 0xbe,
  0xa3, 0x1e, 0x41, 0x3e, 0xa3, 0x44, 0x02, 0xbf, 0xa8, 0x3f, 0x33, 0x3e,
  0xbd, 0x1a, 0x55, 0xbe, 0x48, 0x75, 0x36, 0x3e, 0xc1, 0x59, 0x89, 0x3f,
  0x98, 0x93, 0x5b, 0x3d, 0x23, 0x7d, 0x92, 0xbe, 0x74, 0xf4, 0xe7, 0x3e,
  0x23, 0xd9, 0x82, 0xbe, 0xd9, 0xc2, 0x97, 0xbe, 0x39, 0x6f, 0x4c, 0xbe,
  0x6e, 0xfe, 0xff, 0xff, 0x04, 0x00, 0x00, 0x00, 0xf0, 0x00, 0x00, 0x00,
  0xf0, 0x99, 0x67, 0xbd, 0xe3, 0x8e, 0xd1, 0x3e, 0xd5, 0x3d, 0x0a, 0x3f,
  0xcc, 0xdc, 0x47, 0x3e, 0x30, 0x94, 0x1b, 0x3d, 0xa1, 0x0b, 0x63, 0xbf,
  0x2f, 0xea, 0x10, 0x3c, 0x46, 0xd4, 0x90, 0xbe, 0x0d, 0x3e, 0x00, 0xbf,
  0xb0, 0xa5, 0x76, 0x3e, 0x40, 0x4d, 0x8c, 0xbe, 0x2f, 0xf8, 0x8f, 0xbe,
  0x50, 0x32, 0x18, 0xbd, 0x94, 0x9a, 0xe1, 0xbe, 0x70, 0xa8, 0xd9, 0xbf,
  0xb6, 0xe5, 0xf8, 0xbe, 0x9e, 0x11, 0xb7, 0xbe, 0x83, 0xa2, 0xfb, 0xbe,
  0xa6, 0x52, 0xfa, 0x3e, 0x00, 0x97, 0x77, 0xbe, 0xa0, 0xd1, 0xfc, 0x3e,
  0xc7, 0x7e, 0xca, 0x3e, 0xdf, 0x27, 0x06, 0x3f, 0x4a, 0x46, 0xa5, 0xbe,
  0x8c, 0xd5, 0x73, 0xbd, 0x2a, 0x91, 0xc6, 0x3e, 0x60, 0x47, 0x74, 0x3d,
  0x87, 0x97, 0x06, 0x3f, 0x84, 0xc7, 0x51, 0x3e, 0xb2, 0x32, 0x7d, 0x3d,
  0xfa, 0xa7, 0x6a, 0xbe, 0xdb, 0x5b, 0x91, 0x3f, 0x3e, 0xdf, 0x08, 0x3f,
  0x3d, 0x59, 0x0d, 0x3f, 0x10, 0xd3, 0x4a, 0xbd, 0xbb, 0xa8, 0x39, 0x3f,
  0xb0, 0x0e, 0xe2, 0x3c, 0xf9, 0x46, 0xd2, 0xbe, 0x87, 0x92, 0x24, 0x3e,
  0x4f, 0x2f, 0x88, 0xbf, 0x0c, 0xcb, 0x3a, 0xbe, 0xc8, 0x38, 0xf7, 0xbe,
  0x5c, 0x54, 0xe2, 0xbd, 0x49, 0x21, 0x0e, 0xbf, 0x00, 0xec, 0x52, 0x3f,
  0xd0, 0xec, 0xb0, 0xbe, 0x61, 0x64, 0xdf, 0xbf, 0xb8, 0xd8, 0x09, 0xbf,
  0xe8, 0x11, 0x72, 0x3e, 0xf2, 0xc2, 0x95, 0xbe, 0x1f, 0x0f, 0x6a, 0x3f,
  0x8a, 0x47, 0x88, 0x3d, 0xd4, 0xa7, 0xc1, 0xbe, 0x1d, 0x1c, 0xb4, 0x3e,
  0xcb, 0x85, 0xaa, 0xbd, 0x28, 0x5c, 0xa5, 0xbd, 0x08, 0x25, 0x5f, 0xbe,
  0xe8, 0x26, 0x14, 0x3e, 0xe0, 0x89, 0x95, 0x3d, 0x3b, 0x1c, 0x14, 0x3d,
  0x3c, 0xfa, 0xff, 0xff, 0x40, 0xfa, 0xff, 0xff, 0x0f, 0x00, 0x00, 0x00,
  0x4d, 0x4c, 0x49, 0x52, 0x20, 0x43, 0x6f, 0x6e, 0x76, 0x65, 0x72, 0x74,
  0x65, 0x64, 0x2e, 0x00, 0x01, 0x00, 0x00, 0x00, 0x14, 0x00, 0x00, 0x00,
  0x00, 0x00, 0x0e, 0x00, 0x18, 0x00, 0x14, 0x00, 0x10, 0x00, 0x0c, 0x00,
  0x08, 0x00, 0x04, 0x00, 0x0e, 0x00, 0x00, 0x00, 0x14, 0x00, 0x00, 0x00,
  0x1c, 0x00, 0x00, 0x00, 0x34, 0x01, 0x00, 0x00, 0x38, 0x01, 0x00, 0x00,
  0x3c, 0x01, 0x00, 0x00, 0x04, 0x00, 0x00, 0x00, 0x6d, 0x61, 0x69, 0x6e,
  0x00, 0x00, 0x00, 0x00, 0x04, 0x00, 0x00, 0x00, 0xdc, 0x00, 0x00, 0x00,
  0x94, 0x00, 0x00, 0x00, 0x50, 0x00, 0x00, 0x00, 0x14, 0x00, 0x00, 0x00,
  0x00, 0x00, 0x0e, 0x00, 0x1a, 0x00, 0x14, 0x00, 0x10, 0x00, 0x0c, 0x00,
  0x0b, 0x00, 0x04, 0x00, 0x0e, 0x00, 0x00, 0x00, 0x1c, 0x00, 0x00, 0x00,
  0x00, 0x00, 0x00, 0x09, 0x1c, 0x00, 0x00, 0x00, 0x20, 0x00, 0x00, 0x00,
  0x01, 0x00, 0x00, 0x00, 0x00, 0x00, 0x06, 0x00, 0x08, 0x00, 0x04, 0x00,
  0x06, 0x00, 0x00, 0x00, 0x00, 0x00, 0x80, 0x3f, 0x01, 0x00, 0x00, 0x00,
  0x0a, 0x00, 0x00, 0x00, 0x01, 0x00, 0x00, 0x00, 0x09, 0x00, 0x00, 0x00,
  0xce, 0xff, 0xff, 0xff, 0x10, 0x00, 0x00, 0x00, 0x00, 0x00, 0x00, 0x08,
  0x0c, 0x00, 0x00, 0x00, 0x10, 0x00, 0x00, 0x00, 0x04, 0xfb, 0xff, 0xff,
  0x01, 0x00, 0x00, 0x00, 0x09, 0x00, 0x00, 0x00, 0x03, 0x00, 0x00, 0x00,
  0x08, 0x00, 0x00, 0x00, 0x01, 0x00, 0x00, 0x00, 0x03, 0x00, 0x00, 0x00,
  0x00, 0x00, 0x0e, 0x00, 0x14, 0x00, 0x00, 0x00, 0x10, 0x00, 0x0c, 0x00,
  0x0b, 0x00, 0x04, 0x00, 0x0e, 0x00, 0x00, 0x00, 0x10, 0x00, 0x00, 0x00,
  0x00, 0x00, 0x00, 0x08, 0x10, 0x00, 0x00, 0x00, 0x14, 0x00, 0x00, 0x00,
  0xba, 0xff, 0xff, 0xff, 0x00, 0x00, 0x00, 0x01, 0x01, 0x00, 0x00, 0x00,
  0x08, 0x00, 0x00, 0x00, 0x03, 0x00, 0x00, 0x00, 0x07, 0x00, 0x00, 0x00,
  0x02, 0x00, 0x00, 0x00, 0x04, 0x00, 0x00, 0x00, 0x00, 0x00, 0x0e, 0x00,
  0x16, 0x00, 0x00, 0x00, 0x10, 0x00, 0x0c, 0x00, 0x0b, 0x00, 0x04, 0x00,
  0x0e, 0x00, 0x00, 0x00, 0x18, 0x00, 0x00, 0x00, 0x00, 0x00, 0x00, 0x08,
  0x18, 0x00, 0x00, 0x00, 0x1c, 0x00, 0x00, 0x00, 0x00, 0x00, 0x06, 0x00,
  0x08, 0x00, 0x07, 0x00, 0x06, 0x00, 0x00, 0x00, 0x00, 0x00, 0x00, 0x01,
  0x01, 0x00, 0x00, 0x00, 0x07, 0x00, 0x00, 0x00, 0x03, 0x00, 0x00, 0x00,
  0x00, 0x00, 0x00, 0x00, 0x06, 0x00, 0x00, 0x00, 0x05, 0x00, 0x00, 0x00,
  0x01, 0x00, 0x00, 0x00, 0x0a, 0x00, 0x00, 0x00, 0x01, 0x00, 0x00, 0x00,
  0x00, 0x00, 0x00, 0x00, 0x0b, 0x00, 0x00, 0x00, 0x14, 0x04, 0x00, 0x00,
  0xbc, 0x03, 0x00, 0x00, 0x64, 0x03, 0x00, 0x00, 0x28, 0x03, 0x00, 0x00,
  0xec, 0x02, 0x00, 0x00, 0x8c, 0x02, 0x00, 0x00, 0x38, 0x02, 0x00, 0x00,
  0x90, 0x01, 0x00, 0x00, 0xe8, 0x00, 0x00, 0x00, 0x60, 0x00, 0x00, 0x00,
  0x04, 0x00, 0x00, 0x00, 0x2e, 0xfc, 0xff, 0xff, 0x00, 0x00, 0x00, 0x01,
  0x14, 0x00, 0x00, 0x00, 0x1c, 0x00, 0x00, 0x00, 0x1c, 0x00, 0x00, 0x00,
  0x0b, 0x00, 0x00, 0x00, 0x34, 0x00, 0x00, 0x00, 0x02, 0x00, 0x00, 0x00,
  0xff, 0xff, 0xff, 0xff, 0x04, 0x00, 0x00, 0x00, 0x18, 0xfc, 0xff, 0xff,
  0x1b, 0x00, 0x00, 0x00, 0x53, 0x74, 0x61, 0x74, 0x65, 0x66, 0x75, 0x6c,
  0x50, 0x61, 0x72, 0x74, 0x69, 0x74, 0x69, 0x6f, 0x6e, 0x65, 0x64, 0x43,
  0x61, 0x6c, 0x6c, 0x5f, 0x31, 0x3a, 0x30, 0x00, 0x02, 0x00, 0x00, 0x00,
  0x01, 0x00, 0x00, 0x00, 0x04, 0x00, 0x00, 0x00, 0x86, 0xfc, 0xff, 0xff,
  0x00, 0x00, 0x00, 0x01, 0x14, 0x00, 0x00, 0x00, 0x1c, 0x00, 0x00, 0x00,
  0x1c, 0x00, 0x00, 0x00, 0x0a, 0x00, 0x00, 0x00, 0x60, 0x00, 0x00, 0x00,
  0x02, 0x00, 0x00, 0x00, 0xff, 0xff, 0xff, 0xff, 0x04, 0x00, 0x00, 0x00,
  0x70, 0xfc, 0xff, 0xff, 0x44, 0x00, 0x00, 0x00, 0x73, 0x65, 0x71, 0x75,
  0x65, 0x6e, 0x74, 0x69, 0x61, 0x6c, 0x5f, 0x31, 0x32, 0x5f, 0x31, 0x2f,
  0x64, 0x65, 0x6e, 0x73, 0x65, 0x5f, 0x33, 0x30, 0x5f, 0x31, 0x2f, 0x4d,
  0x61, 0x74, 0x4d, 0x75, 0x6c, 0x3b, 0x73, 0x65, 0x71, 0x75, 0x65, 0x6e,
  0x74, 0x69, 0x61, 0x6c, 0x5f, 0x31, 0x32, 0x5f, 0x31, 0x2f, 0x64, 0x65,
  0x6e, 0x73, 0x65, 0x5f, 0x33, 0x30, 0x5f, 0x31, 0x2f, 0x42, 0x69, 0x61,
  0x73, 0x41, 0x64, 0x64, 0x00, 0x00, 0x00, 0x00, 0x02, 0x00, 0x00, 0x00,
  0x01, 0x00, 0x00, 0x00, 0x04, 0x00, 0x00, 0x00, 0x0a, 0xfd, 0xff, 0xff,
  0x00, 0x00, 0x00, 0x01, 0x14, 0x00, 0x00, 0x00, 0x1c, 0x00, 0x00, 0x00,
  0x1c, 0x00, 0x00, 0x00, 0x09, 0x00, 0x00, 0x00, 0x80, 0x00, 0x00, 0x00,
  0x02, 0x00, 0x00, 0x00, 0xff, 0xff, 0xff, 0xff, 0x0f, 0x00, 0x00, 0x00,
  0xf4, 0xfc, 0xff, 0xff, 0x64, 0x00, 0x00, 0x00, 0x73, 0x65, 0x71, 0x75,
  0x65, 0x6e, 0x74, 0x69, 0x61, 0x6c, 0x5f, 0x31, 0x32, 0x5f, 0x31, 0x2f,
  0x64, 0x65, 0x6e, 0x73, 0x65, 0x5f, 0x32, 0x39, 0x5f, 0x31, 0x2f, 0x4d,
  0x61, 0x74, 0x4d, 0x75, 0x6c, 0x3b, 0x73, 0x65, 0x71, 0x75, 0x65, 0x6e,
  0x74, 0x69, 0x61, 0x6c, 0x5f, 0x31, 0x32, 0x5f, 0x31, 0x2f, 0x64, 0x65,
  0x6e, 0x73, 0x65, 0x5f, 0x32, 0x39, 0x5f, 0x31, 0x2f, 0x52, 0x65, 0x6c,
  0x75, 0x3b, 0x73, 0x65, 0x71, 0x75, 0x65, 0x6e, 0x74, 0x69, 0x61, 0x6c,
  0x5f, 0x31, 0x32, 0x5f, 0x31, 0x2f, 0x64, 0x65, 0x6e, 0x73, 0x65, 0x5f,
  0x32, 0x39, 0x5f, 0x31, 0x2f, 0x42, 0x69, 0x61, 0x73, 0x41, 0x64, 0x64,
  0x00, 0x00, 0x00, 0x00, 0x02, 0x00, 0x00, 0x00, 0x01, 0x00, 0x00, 0x00,
  0x0f, 0x00, 0x00, 0x00, 0xae, 0xfd, 0xff, 0xff, 0x00, 0x00, 0x00, 0x01,
  0x14, 0x00, 0x00, 0x00, 0x1c, 0x00, 0x00, 0x00, 0x1c, 0x00, 0x00, 0x00,
  0x08, 0x00, 0x00, 0x00, 0x80, 0x00, 0x00, 0x00, 0x02, 0x00, 0x00, 0x00,
  0xff, 0xff, 0xff, 0xff, 0x20, 0x00, 0x00, 0x00, 0x98, 0xfd, 0xff, 0xff,
  0x64, 0x00, 0x00, 0x00, 0x73, 0x65, 0x71, 0x75, 0x65, 0x6e, 0x74, 0x69,
  0x61, 0x6c, 0x5f, 0x31, 0x32, 0x5f, 0x31, 0x2f, 0x64, 0x65, 0x6e, 0x73,
  0x65, 0x5f, 0x32, 0x38, 0x5f, 0x31, 0x2f, 0x4d, 0x61, 0x74, 0x4d, 0x75,
  0x6c, 0x3b, 0x73, 0x65, 0x71, 0x75, 0x65, 0x6e, 0x74, 0x69, 0x61, 0x6c,
  0x5f, 0x31, 0x32, 0x5f, 0x31, 0x2f, 0x64, 0x65, 0x6e, 0x73, 0x65, 0x5f,
  0x32, 0x38, 0x5f, 0x31, 0x2f, 0x52, 0x65, 0x6c, 0x75, 0x3b, 0x73, 0x65,
  0x71, 0x75, 0x65, 0x6e, 0x74, 0x69, 0x61, 0x6c, 0x5f, 0x31, 0x32, 0x5f,
  0x31, 0x2f, 0x64, 0x65, 0x6e, 0x73, 0x65, 0x5f, 0x32, 0x38, 0x5f, 0x31,
  0x2f, 0x42, 0x69, 0x61, 0x73, 0x41, 0x64, 0x64, 0x00, 0x00, 0x00, 0x00,
  0x02, 0x00, 0x00, 0x00, 0x01, 0x00, 0x00, 0x00, 0x20, 0x00, 0x00, 0x00,
  0xa6, 0xfe, 0xff, 0xff, 0x00, 0x00, 0x00, 0x01, 0x10, 0x00, 0x00, 0x00,
  0x10, 0x00, 0x00, 0x00, 0x07, 0x00, 0x00, 0x00, 0x30, 0x00, 0x00, 0x00,
  0x2c, 0xfe, 0xff, 0xff, 0x21, 0x00, 0x00, 0x00, 0x73, 0x65, 0x71, 0x75,
  0x65, 0x6e, 0x74, 0x69, 0x61, 0x6c, 0x5f, 0x31, 0x32, 0x5f, 0x31, 0x2f,
  0x64, 0x65, 0x6e, 0x73, 0x65, 0x5f, 0x32, 0x38, 0x5f, 0x31, 0x2f, 0x4d,
  0x61, 0x74, 0x4d, 0x75, 0x6c, 0x00, 0x00, 0x00, 0x02, 0x00, 0x00, 0x00,
  0x20, 0x00, 0x00, 0x00, 0x2a, 0x00, 0x00, 0x00, 0xf6, 0xfe, 0xff, 0xff,
  0x00, 0x00, 0x00, 0x01, 0x10, 0x00, 0x00, 0x00, 0x10, 0x00, 0x00, 0x00,
  0x06, 0x00, 0x00, 0x00, 0x40, 0x00, 0x00, 0x00, 0x7c, 0xfe, 0xff, 0xff,
  0x31, 0x00, 0x00, 0x00, 0x73, 0x65, 0x71, 0x75, 0x65, 0x6e, 0x74, 0x69,
  0x61, 0x6c, 0x5f, 0x31, 0x32, 0x5f, 0x31, 0x2f, 0x64, 0x65, 0x6e, 0x73,
  0x65, 0x5f, 0x32, 0x38, 0x5f, 0x31, 0x2f, 0x42, 0x69, 0x61, 0x73, 0x41,
  0x64, 0x64, 0x2f, 0x52, 0x65, 0x61, 0x64, 0x56, 0x61, 0x72, 0x69, 0x61,
  0x62, 0x6c, 0x65, 0x4f, 0x70, 0x00, 0x00, 0x00, 0x01, 0x00, 0x00, 0x00,
  0x20, 0x00, 0x00, 0x00, 0x52, 0xff, 0xff, 0xff, 0x00, 0x00, 0x00, 0x01,
  0x10, 0x00, 0x00, 0x00, 0x10, 0x00, 0x00, 0x00, 0x05, 0x00, 0x00, 0x00,
  0x1c, 0x00, 0x00, 0x00, 0xd8, 0xfe, 0xff, 0xff, 0x0f, 0x00, 0x00, 0x00,
  0x61, 0x72, 0x69, 0x74, 0x68, 0x2e, 0x63, 0x6f, 0x6e, 0x73, 0x74, 0x61,
  0x6e, 0x74, 0x33, 0x00, 0x01, 0x00, 0x00, 0x00, 0x0f, 0x00, 0x00, 0x00,
  0x8a, 0xff, 0xff, 0xff, 0x00, 0x00, 0x00, 0x01, 0x10, 0x00, 0x00, 0x00,
  0x10, 0x00, 0x00, 0x00, 0x04, 0x00, 0x00, 0x00, 0x1c, 0x00, 0x00, 0x00,
  0x10, 0xff, 0xff, 0xff, 0x0f, 0x00, 0x00, 0x00, 0x61, 0x72, 0x69, 0x74,
  0x68, 0x2e, 0x63, 0x6f, 0x6e, 0x73, 0x74, 0x61, 0x6e, 0x74, 0x32, 0x00,
  0x01, 0x00, 0x00, 0x00, 0x04, 0x00, 0x00, 0x00, 0xc2, 0xff, 0xff, 0xff,
  0x00, 0x00, 0x00, 0x01, 0x10, 0x00, 0x00, 0x00, 0x10, 0x00, 0x00, 0x00,
  0x03, 0x00, 0x00, 0x00, 0x1c, 0x00, 0x00, 0x00, 0x48, 0xff, 0xff, 0xff,
  0x0f, 0x00, 0x00, 0x00, 0x61, 0x72, 0x69, 0x74, 0x68, 0x2e, 0x63, 0x6f,
  0x6e, 0x73, 0x74, 0x61, 0x6e, 0x74, 0x31, 0x00, 0x02, 0x00, 0x00, 0x00,
  0x0f, 0x00, 0x00, 0x00, 0x20, 0x00, 0x00, 0x00, 0x00, 0x00, 0x16, 0x00,
  0x18, 0x00, 0x14, 0x00, 0x00, 0x00, 0x10, 0x00, 0x0c, 0x00, 0x08, 0x00,
  0x00, 0x00, 0x00, 0x00, 0x00, 0x00, 0x07, 0x00, 0x16, 0x00, 0x00, 0x00,
  0x00, 0x00, 0x00, 0x01, 0x10, 0x00, 0x00, 0x00, 0x10, 0x00, 0x00, 0x00,
  0x02, 0x00, 0x00, 0x00, 0x1c, 0x00, 0x00, 0x00, 0x9c, 0xff, 0xff, 0xff,
  0x0e, 0x00, 0x00, 0x00, 0x61, 0x72, 0x69, 0x74, 0x68, 0x2e, 0x63, 0x6f,
  0x6e, 0x73, 0x74, 0x61, 0x6e, 0x74, 0x00, 0x00, 0x02, 0x00, 0x00, 0x00,
  0x04, 0x00, 0x00, 0x00, 0x0f, 0x00, 0x00, 0x00, 0x00, 0x00, 0x16, 0x00,
  0x1c, 0x00, 0x18, 0x00, 0x00, 0x00, 0x14, 0x00, 0x10, 0x00, 0x0c, 0x00,
  0x00, 0x00, 0x00, 0x00, 0x08, 0x00, 0x07, 0x00, 0x16, 0x00, 0x00, 0x00,
  0x00, 0x00, 0x00, 0x01, 0x14, 0x00, 0x00, 0x00, 0x20, 0x00, 0x00, 0x00,
  0x20, 0x00, 0x00, 0x00, 0x01, 0x00, 0x00, 0x00, 0x40, 0x00, 0x00, 0x00,
  0x02, 0x00, 0x00, 0x00, 0xff, 0xff, 0xff, 0xff, 0x2a, 0x00, 0x00, 0x00,
  0x04, 0x00, 0x04, 0x00, 0x04, 0x00, 0x00, 0x00, 0x21, 0x00, 0x00, 0x00,
  0x73, 0x65, 0x72, 0x76, 0x69, 0x6e, 0x67, 0x5f, 0x64, 0x65, 0x66, 0x61,
  0x75, 0x6c, 0x74, 0x5f, 0x6b, 0x65, 0x72, 0x61, 0x73, 0x5f, 0x74, 0x65,
  0x6e, 0x73, 0x6f, 0x72, 0x5f, 0x35, 0x33, 0x3a, 0x30, 0x00, 0x00, 0x00,
  0x02, 0x00, 0x00, 0x00, 0x01, 0x00, 0x00, 0x00, 0x2a, 0x00, 0x00, 0x00,
  0x02, 0x00, 0x00, 0x00, 0x20, 0x00, 0x00, 0x00, 0x04, 0x00, 0x00, 0x00,
  0xf4, 0xff, 0xff, 0xff, 0x19, 0x00, 0x00, 0x00, 0x00, 0x00, 0x00, 0x19,
  0x0c, 0x00, 0x0c, 0x00, 0x0b, 0x00, 0x00, 0x00, 0x00, 0x00, 0x04, 0x00,
  0x0c, 0x00, 0x00, 0x00, 0x09, 0x00, 0x00, 0x00, 0x00, 0x00, 0x00, 0x09
};
